<unk>	0
<s>	0
</s>	0
▁,	-0
▁▃	-1
▁。	-2
▁的	-3
▁1	-4
▁年	-5
▁、	-6
▁▂	-7
▁)	-8
▁(	-9
▁2	-10
▁在	-11
▁一	-12
▁是	-13
▁中	-14
▁为	-15
▁20	-16
▁人	-17
▁19	-18
▁月	-19
▁和	-20
▁大	-21
▁日	-22
▁有	-23
▁以	-24
▁了	-25
▁:	-26
▁于	-27
▁不	-28
▁与	-29
▁之	-30
▁-	-31
▁第	-32
▁》	-33
▁《	-34
▁他	-35
▁其	-36
▁后	-37
▁公	-38
▁上	-39
▁地	-40
▁3	-41
▁201	-42
▁由	-43
▁被	-44
▁·	-45
▁200	-46
▁时	-47
▁国	-48
▁成	-49
▁发	-50
▁并	-51
▁一个	-52
▁可	-53
▁主	-54
▁这	-55
▁而	-56
▁「	-57
▁」	-58
▁最	-59
▁出	-60
▁西	-61
▁也	-62
▁该	-63
▁分	-64
▁4	-65
▁平	-66
▁学	-67
▁等	-68
▁新	-69
▁5	-70
▁及	-71
▁位	-72
▁“	-73
▁”	-74
▁中国	-75
▁开	-76
▁东	-77
▁;	-78
▁自	-79
▁下	-80
▁小	-81
▁"	-82
▁总	-83
▁因	-84
▁三	-85
▁对	-86
▁南	-87
▁电	-88
▁高	-89
▁所	-90
▁6	-91
▁美	-92
▁台	-93
▁生	-94
▁北	-95
▁但	-96
▁当	-97
▁海	-98
▁同	-99
▁进	-100
▁将	-101
▁位于	-102
▁作	-103
▁会	-104
▁7	-105
▁两	-106
▁多	-107
▁至	-108
▁人口	-109
▁建	-110
▁8	-111
▁10	-112
▁全	-113
▁文	-114
▁前	-115
▁使	-116
▁或	-117
▁内	-118
▁名	-119
▁天	-120
▁市	-121
▁9	-122
▁法	-123
▁阿	-124
▁加	-125
▁设	-126
▁S	-127
▁到	-128
▁曾	-129
▁工	-130
▁平方	-131
▁教	-132
▁政	-133
▁经	-134
▁都	-135
▁马	-136
▁英	-137
▁相	-138
▁属	-139
▁重	-140
▁此	-141
▁原	-142
00	-143
er	-144
▁参	-145
▁二	-146
▁C	-147
▁本	-148
▁特	-149
▁18	-150
▁美国	-151
▁改	-152
▁通	-153
▁12	-154
an	-155
▁现	-156
▁首	-157
▁山	-158
▁比	-159
▁行	-160
▁199	-161
▁科	-162
▁长	-163
公里	-164
▁从	-165
▁A	-166
▁平方公里	-167
▁正	-168
▁四	-169
▁任	-170
▁世	-171
▁十	-172
▁M	-173
▁德	-174
▁米	-175
or	-176
▁方	-177
▁广	-178
▁提	-179
▁巴	-180
▁女	-181
▁个	-182
▁区	-183
▁香	-184
▁基	-185
▁来	-186
▁王	-187
▁就	-188
▁单	-189
▁部	-190
▁包	-191
▁日本	-192
▁无	-193
in	-194
▁11	-195
▁安	-196
▁可以	-197
▁联	-198
▁指	-199
on	-200
面积	-201
▁城	-202
▁机	-203
▁水	-204
▁车	-205
▁获	-206
▁战	-207
▁金	-208
▁运	-209
▁用	-210
▁已	-211
▁组	-212
▁共	-213
▁B	-214
▁香港	-215
▁代	-216
▁亚	-217
▁第一	-218
▁.	-219
▁军	-220
▁地区	-221
▁台湾	-222
▁/	-223
▁外	-224
▁成为	-225
▁专	-226
▁表	-227
▁每	-228
▁又	-229
▁称	-230
▁如	-231
▁管	-232
▁太	-233
▁使用	-234
▁民	-235
▁T	-236
▁更	-237
▁结	-238
▁其中	-239
▁制	-240
▁号	-241
▁198	-242
▁国家	-243
▁P	-244
▁则	-245
▁开始	-246
▁过	-247
▁各	-248
▁还	-249
▁卡	-250
▁合	-251
▁数	-252
▁保	-253
ar	-254
▁事	-255
▁河	-256
▁直	-257
▁奥	-258
▁李	-259
▁约	-260
▁县	-261
▁选	-262
▁目	-263
▁研	-264
▁万	-265
▁以及	-266
▁五	-267
▁接	-268
▁道	-269
en	-270
▁主要	-271
▁15	-272
▁罗	-273
▁系	-274
▁球	-275
▁只	-276
▁它	-277
▁交	-278
▁她	-279
▁路	-280
▁乡	-281
▁实	-282
▁列	-283
▁站	-284
▁明	-285
la	-286
▁拉	-287
▁斯	-288
▁关	-289
▁清	-290
▁包括	-291
▁D	-292
▁传	-293
▁布	-294
▁得	-295
▁0	-296
▁家	-297
▁反	-298
▁16	-299
▁没	-300
▁H	-301
▁圣	-302
▁能	-303
▁认	-304
▁维	-305
委员	-306
▁里	-307
▁体	-308
▁进行	-309
▁创	-310
▁变	-311
▁研究	-312
▁社	-313
▁起	-314
▁古	-315
▁公司	-316
▁受	-317
▁铁	-318
▁17	-319
▁担	-320
▁转	-321
▁亦	-322
▁张	-323
▁G	-324
▁省	-325
▁即	-326
▁集	-327
▁L	-328
▁动	-329
▁形	-330
▁I	-331
▁镇	-332
▁向	-333
▁达	-334
▁男	-335
▁第二	-336
▁伊	-337
▁演	-338
▁黄	-339
▁游	-340
▁完	-341
▁克	-342
▁苏	-343
▁图	-344
▁连	-345
▁意	-346
▁元	-347
▁流	-348
▁获得	-349
▁世界	-350
▁回	-351
al	-352
▁历	-353
▁国际	-354
▁处	-355
▁非	-356
▁负	-357
▁支	-358
▁副	-359
▁由于	-360
▁R	-361
▁没有	-362
▁担任	-363
▁著	-364
▁197	-365
▁影	-366
▁N	-367
▁线	-368
▁再	-369
▁中华	-370
▁大学	-371
▁周	-372
▁领	-373
▁一种	-374
▁武	-375
▁另	-376
▁市镇	-377
▁举	-378
▁陈	-379
大学	-380
▁利	-381
▁推	-382
▁14	-383
▁很	-384
▁要	-385
▁收	-386
▁194	-387
▁之后	-388
▁195	-389
▁F	-390
▁13	-391
▁产	-392
▁神	-393
▁取	-394
▁f	-395
▁足	-396
▁音	-397
▁常	-398
▁之一	-399
▁政治	-400
▁因此	-401
▁白	-402
▁赛	-403
▁他们	-404
▁资	-405
▁普	-406
▁电影	-407
▁面积	-408
▁下辖	-409
es	-410
▁计	-411
at	-412
▁成立	-413
▁村	-414
▁其他	-415
▁印	-416
▁随	-417
▁街	-418
▁波	-419
人民	-420
▁江	-421
▁属于	-422
▁代表	-423
▁E	-424
▁青	-425
▁工作	-426
▁今	-427
▁行政	-428
▁欧	-429
ic	-430
▁引	-431
▁州	-432
▁当时	-433
▁法国	-434
▁字	-435
▁石	-436
▁宣	-437
▁196	-438
▁歌	-439
▁说	-440
▁物	-441
▁根	-442
▁作为	-443
▁编	-444
▁期	-445
▁官	-446
▁负责	-447
▁投	-448
▁商	-449
▁单位	-450
▁超	-451
▁委员	-452
▁博	-453
▁认为	-454
▁参加	-455
▁公里	-456
▁乌	-457
▁种	-458
▁尼	-459
▁华	-460
▁未	-461
▁刘	-462
▁先	-463
▁信	-464
▁因为	-465
▁网	-466
▁福	-467
▁较	-468
▁发现	-469
▁运动	-470
▁电视	-471
▁爱	-472
▁英国	-473
▁光	-474
▁入	-475
▁故	-476
▁打	-477
▁车站	-478
▁导	-479
▁空	-480
▁建筑	-481
▁许	-482
▁服	-483
▁W	-484
▁活	-485
▁决	-486
密度	-487
▁2009	-488
▁以下	-489
mu	-490
▁协	-491
▁居	-492
▁六	-493
▁格	-494
▁观	-495
is	-496
▁193	-497
▁书	-498
政府	-499
▁_	-500
▁双	-501
▁解	-502
▁我	-503
▁节	-504
▁同时	-505
▁八	-506
▁职	-507
▁定	-508
▁30	-509
▁环	-510
▁黑	-511
le	-512
▁立	-513
▁for	-514
▁风	-515
▁汉	-516
▁类	-517
▁发展	-518
▁星	-519
▁身	-520
▁林	-521
▁湖	-522
▁红	-523
▁称为	-524
▁理	-525
▁不同	-526
▁应	-527
▁J	-528
和国	-529
▁设计	-530
▁自己	-531
▁K	-532
公司	-533
▁可能	-534
▁哈	-535
▁初	-536
▁中心	-537
▁次	-538
▁学名	-539
▁2010	-540
▁分布	-541
▁记	-542
▁t	-543
▁2011	-544
▁人口密度	-545
▁调	-546
▁深	-547
▁知	-548
▁海拔	-549
▁21	-550
▁独	-551
▁—	-552
▁标	-553
▁九	-554
▁北京	-555
▁修	-556
▁手	-557
行星	-558
▁希	-559
▁目前	-560
▁父	-561
▁仍	-562
mula	-563
▁情	-564
it	-565
▁这个	-566
▁增	-567
▁后来	-568
▁通过	-569
▁formula	-570
▁司	-571
▁采	-572
▁语	-573
▁需	-574
▁根据	-575
▁足球	-576
▁那	-577
▁小行星	-578
▁继	-579
▁花	-580
▁管理	-581
▁规	-582
▁铁路	-583
▁历史	-584
▁音乐	-585
▁时间	-586
▁系统	-587
▁条	-588
▁少	-589
▁皇	-590
▁化	-591
▁政府	-592
▁强	-593
el	-594
▁报	-595
▁带	-596
▁沙	-597
▁c	-598
▁吉	-599
▁除	-600
▁热	-601
▁医	-602
▁龙	-603
▁年代	-604
▁s	-605
ro	-606
▁25	-607
▁192	-608
▁早	-609
▁总面积	-610
▁统	-611
▁岁	-612
▁去	-613
▁登	-614
▁朝	-615
▁给	-616
▁游戏	-617
▁2001	-618
▁文化	-619
▁航	-620
▁人物	-621
▁火	-622
▁纪	-623
▁第三	-624
▁全国	-625
▁正式	-626
▁飞	-627
▁土	-628
▁让	-629
▁占	-630
▁银	-631
▁史	-632
▁角	-633
▁命	-634
▁简	-635
▁上海	-636
▁农	-637
▁社会	-638
▁附	-639
▁中央	-640
▁模	-641
▁2012	-642
▁具	-643
▁2013	-644
▁作品	-645
▁死	-646
▁提供	-647
▁期间	-648
▁比赛	-649
▁O	-650
▁老	-651
▁部分	-652
▁左	-653
▁该国	-654
▁韩	-655
▁埃	-656
▁出现	-657
▁一些	-658
▁威	-659
▁半	-660
▁把	-661
▁俄	-662
▁管辖	-663
▁复	-664
利亚	-665
▁艺	-666
▁最后	-667
▁排	-668
▁七	-669
▁团	-670
共和国	-671
▁离	-672
▁真	-673
.5	-674
ol	-675
▁德国	-676
he	-677
re	-678
▁2016	-679
▁2008	-680
▁几	-681
▁版	-682
▁发生	-683
▁委员会	-684
am	-685
▁之间	-686
▁所有	-687
▁2014	-688
▁岛	-689
▁表示	-690
▁执	-691
▁服务	-692
▁学校	-693
▁整	-694
▁城市	-695
▁问	-696
▁组织	-697
▁塔	-698
▁议	-699
▁这些	-700
▁派	-701
▁毕	-702
▁2015	-703
▁性	-704
▁22	-705
▁进入	-706
▁萨	-707
▁奖	-708
il	-709
▁生活	-710
▁冠	-711
▁子	-712
▁成员	-713
▁贝	-714
▁便	-715
▁才	-716
▁澳	-717
▁经济	-718
▁例	-719
▁近	-720
▁乐	-721
▁V	-722
▁客	-723
▁发行	-724
▁校	-725
▁唐	-726
▁计划	-727
▁两个	-728
▁一般	-729
▁剧	-730
▁U	-731
▁许多	-732
▁播	-733
部分	-734
ou	-735
▁时期	-736
▁百	-737
▁技	-738
▁制作	-739
000	-740
▁24	-741
▁配	-742
▁郡	-743
▁加入	-744
▁存	-745
▁夏	-746
▁2007	-747
▁活动	-748
▁攻	-749
▁杨	-750
▁预	-751
▁考	-752
▁世纪	-753
▁面	-754
▁甲	-755
▁办	-756
▁b	-757
▁做	-758
▁印度	-759
▁已经	-760
▁精	-761
▁影响	-762
▁23	-763
▁大陆	-764
▁依	-765
▁党	-766
植物	-767
▁拥	-768
▁然	-769
▁停	-770
▁举行	-771
ion	-772
▁升	-773
▁评	-774
▁虽	-775
▁永	-776
▁吴	-777
尼亚	-778
▁造	-779
ac	-780
▁z	-781
as	-782
▁视	-783
▁但是	-784
▁越	-785
▁生于	-786
▁兴	-787
▁191	-788
▁型	-789
▁心	-790
▁消	-791
▁好	-792
▁气	-793
▁学院	-794
▁洛	-795
▁却	-796
▁2006	-797
▁看	-798
▁教育	-799
▁重要	-800
▁旅	-801
▁蒙	-802
人民共和国	-803
▁分别	-804
▁同年	-805
▁鱼	-806
▁均	-807
▁尚	-808
▁队	-809
▁云	-810
高度	-811
▁兼	-812
▁陆	-813
▁人民	-814
▁海拔高度	-815
▁毕业	-816
▁失	-817
▁2017	-818
▁瓦	-819
▁泰	-820
et	-821
▁警	-822
学家	-823
人口	-824
▁h	-825
▁纳	-826
▁父亲	-827
▁}	-828
▁{	-829
▁群	-830
▁参与	-831
▁低	-832
▁二十	-833
▁展	-834
▁佛	-835
▁范	-836
▁莫	-837
▁为了	-838
▁最终	-839
▁莱	-840
▁欧洲	-841
▁仅	-842
▁母	-843
▁装	-844
▁问题	-845
学院	-846
▁中华人民共和国	-847
▁冠军	-848
▁放	-849
▁食	-850
▁工程	-851
▁组成	-852
▁移	-853
▁zh	-854
▁联合	-855
▁旧	-856
▁28	-857
▁一座	-858
▁31	-859
▁儿	-860
▁地方	-861
▁场	-862
▁变化	-863
主义	-864
▁温	-865
▁遗	-866
▁塞	-867
▁亲	-868
▁拥有	-869
▁26	-870
▁始	-871
us	-872
▁宗	-873
▁2005	-874
▁球队	-875
▁植物	-876
▁艾	-877
▁总人口	-878
.1	-879
▁通常	-880
.2	-881
▁雷	-882
▁监	-883
▁座	-884
▁建立	-885
▁门	-886
▁!	-887
▁并且	-888
罗斯	-889
▁师	-890
▁专辑	-891
▁街道	-892
▁嘉	-893
▁卫	-894
▁东北	-895
▁决定	-896
▁最高	-897
▁显	-898
▁干	-899
▁27	-900
▁朱	-901
.0	-902
▁营	-903
▁出版	-904
▁西班	-905
▁西班牙	-906
▁退	-907
▁诺	-908
om	-909
▁项	-910
▁集团	-911
▁技术	-912
▁声	-913
▁学生	-914
▁短	-915
▁需要	-916
▁写	-917
▁头	-918
▁2018	-919
▁杀	-920
▁瑞	-921
▁有限	-922
▁得到	-923
▁女性	-924
▁港	-925
▁封	-926
▁例如	-927
▁极	-928
▁控	-929
▁延	-930
▁100	-931
▁d	-932
▁完成	-933
▁胡	-934
▁节目	-935
▁感	-936
▁边	-937
▁弗	-938
▁一位	-939
▁虽然	-940
▁千	-941
▁最大	-942
▁|	-943
▁独立	-944
▁2000	-945
ing	-946
▁优	-947
▁木	-948
▁艺术	-949
.3	-950
▁开发	-951
▁就是	-952
▁>	-953
▁必	-954
▁细	-955
▁口	-956
▁著名	-957
▁留	-958
▁前往	-959
▁现在	-960
▁来自	-961
▁支持	-962
▁中共	-963
▁间	-964
▁防	-965
▁梅	-966
▁所以	-967
▁祖	-968
▁杜	-969
▁事件	-970
▁终	-971
▁效	-972
▁功	-973
▁距	-974
大利	-975
▁注	-976
▁另外	-977
▁<	-978
ch	-979
▁方式	-980
▁宣布	-981
▁尔	-982
.6	-983
▁受到	-984
▁形成	-985
▁具有	-986
▁托	-987
▁29	-988
▁治	-989
▁击	-990
▁者	-991
▁一名	-992
▁当地	-993
▁东南	-994
▁沿	-995
▁台北	-996
▁亿	-997
.4	-998
id	-999
▁临	-1000
.8	-1001
▁批	-1002
▁产生	-1003
▁康	-1004
▁遭	-1005
▁宋	-1006
民国	-1007
▁联赛	-1008
▁命名	-1009
▁生产	-1010
▁皮	-1011
▁采用	-1012
▁190	-1013
▁驻	-1014
▁草	-1015
▁关系	-1016
▁西北	-1017
▁系列	-1018
▁帕	-1019
▁证	-1020
▁突	-1021
▁库	-1022
▁俄罗斯	-1023
un	-1024
.7	-1025
▁设有	-1026
▁府	-1027
▁栖	-1028
▁卢	-1029
▁西南	-1030
▁严	-1031
▁2004	-1032
▁往	-1033
ter	-1034
▁存在	-1035
▁夫	-1036
▁追	-1037
▁程	-1038
▁成功	-1039
▁罗马	-1040
▁只有	-1041
▁业	-1042
▁拍	-1043
▁们	-1044
▁=	-1045
▁甚	-1046
▁列车	-1047
▁乡镇	-1048
▁孙	-1049
▁韩国	-1050
▁自由	-1051
▁承	-1052
▁郑	-1053
▁o	-1054
▁经过	-1055
▁若	-1056
▁秘	-1057
▁中华民国	-1058
▁授	-1059
▁病	-1060
▁降	-1061
▁晋	-1062
▁背	-1063
▁特别	-1064
▁毛	-1065
▁确	-1066
▁取得	-1067
▁韦	-1068
▁富	-1069
▁50	-1070
▁且	-1071
▁喜	-1072
▁住	-1073
▁快	-1074
▁第十	-1075
▁总统	-1076
and	-1077
▁附近	-1078
▁这种	-1079
革命	-1080
▁京	-1081
▁按	-1082
▁顺	-1083
▁院	-1084
ed	-1085
ig	-1086
▁企	-1087
▁签	-1088
▁合作	-1089
▁m	-1090
▁主席	-1091
ow	-1092
▁机场	-1093
▁航空	-1094
▁故事	-1095
▁抗	-1096
西亚	-1097
▁出身	-1098
▁赵	-1099
▁首次	-1100
▁赤	-1101
▁名称	-1102
▁阿尔	-1103
▁归	-1104
▁股	-1105
▁纽	-1106
▁浙	-1107
▁居民	-1108
.9	-1109
▁微	-1110
ad	-1111
ur	-1112
▁运动员	-1113
▁北部	-1114
▁有限公司	-1115
▁走	-1116
▁财	-1117
▁亚洲	-1118
▁索	-1119
▁混	-1120
▁核	-1121
▁广东	-1122
▁选举	-1123
▁时代	-1124
▁状	-1125
▁持	-1126
▁学习	-1127
▁'	-1128
▁不过	-1129
▁改为	-1130
▁太阳	-1131
▁n	-1132
▁公园	-1133
▁皆	-1134
▁乡镇级	-1135
▁田	-1136
▁国民	-1137
▁结束	-1138
▁兰	-1139
▁兵	-1140
▁点	-1141
▁底	-1142
▁情况	-1143
▁传统	-1144
▁权	-1145
▁此外	-1146
▁麦	-1147
▁巨	-1148
▁联盟	-1149
▁叶	-1150
▁诗	-1151
▁提出	-1152
▁文物	-1153
▁栖息	-1154
▁施	-1155
克兰	-1156
▁对于	-1157
▁杂	-1158
▁进士	-1159
▁软	-1160
▁2003	-1161
▁据	-1162
▁方面	-1163
▁项目	-1164
▁奇	-1165
▁然而	-1166
▁40	-1167
▁满	-1168
▁超过	-1169
▁局	-1170
▁平均	-1171
▁要求	-1172
▁南部	-1173
▁新闻	-1174
▁令	-1175
os	-1176
▁胜	-1177
▁一直	-1178
▁宫	-1179
▁主任	-1180
▁试	-1181
▁浙江	-1182
▁语言	-1183
▁版本	-1184
▁右	-1185
▁角色	-1186
▁迁	-1187
▁女子	-1188
▁扩	-1189
▁宽	-1190
▁除了	-1191
▁西部	-1192
▁p	-1193
▁意大利	-1194
▁耶	-1195
▁乘	-1196
▁用于	-1197
▁属下	-1198
▁供	-1199
▁中学	-1200
▁相关	-1201
▁准	-1202
▁费	-1203
▁密	-1204
▁还有	-1205
▁式	-1206
▁远	-1207
斯特	-1208
▁菲	-1209
▁摩	-1210
▁2002	-1211
▁杰	-1212
▁宝	-1213
▁导致	-1214
▁某	-1215
▁一次	-1216
▁城镇	-1217
▁跟	-1218
▁班	-1219
▁距离	-1220
▁伯	-1221
主教	-1222
▁徐	-1223
▁图示	-1224
▁纪念	-1225
▁丹	-1226
▁推出	-1227
▁锦	-1228
▁第四	-1229
▁酒	-1230
▁最佳	-1231
▁帝	-1232
▁接受	-1233
▁男性	-1234
▁个人	-1235
▁如果	-1236
▁乌克兰	-1237
▁控制	-1238
▁造成	-1239
格兰	-1240
▁落	-1241
▁透	-1242
▁简称	-1243
▁率	-1244
▁季	-1245
▁义	-1246
▁松	-1247
▁四川	-1248
▁贵	-1249
▁爆	-1250
▁曲	-1251
▁见	-1252
▁迪	-1253
▁领导	-1254
▁测	-1255
▁唯	-1256
▁画	-1257
▁无法	-1258
▁山东	-1259
▁体育	-1260
▁伦	-1261
▁蓝	-1262
▁继续	-1263
▁讲	-1264
▁职业	-1265
▁于是	-1266
▁诸	-1267
▁庄	-1268
▁战争	-1269
▁赛事	-1270
▁歌曲	-1271
▁动画	-1272
▁列表	-1273
ent	-1274
▁寺	-1275
▁朝鲜	-1276
▁着	-1277
▁霍	-1278
▁分为	-1279
50	-1280
▁非常	-1281
▁标准	-1282
▁桥	-1283
▁争	-1284
▁电子	-1285
▁冰	-1286
▁000	-1287
▁任何	-1288
▁巡	-1289
▁播出	-1290
▁东京	-1291
▁太平	-1292
▁海军	-1293
▁乔	-1294
▁晚	-1295
▁哥	-1296
▁围	-1297
▁启	-1298
▁旗	-1299
▁坐	-1300
▁结构	-1301
▁漫	-1302
▁Ch	-1303
▁包含	-1304
▁共有	-1305
▁丰	-1306
▁饰	-1307
▁描	-1308
▁举办	-1309
▁范围	-1310
▁谢	-1311
▁荷	-1312
▁船	-1313
▁曾经	-1314
▁教授	-1315
▁内容	-1316
▁鲁	-1317
▁查	-1318
▁动物	-1319
▁发表	-1320
od	-1321
▁像	-1322
▁逐	-1323
▁设立	-1324
▁圆	-1325
▁竞	-1326
▁增加	-1327
▁结果	-1328
▁区域	-1329
▁英文	-1330
▁沃	-1331
▁轨	-1332
▁X	-1333
▁明朝	-1334
▁赫	-1335
▁容	-1336
▁教区	-1337
▁楼	-1338
▁..	-1339
▁St	-1340
▁恒	-1341
▁现代	-1342
▁交通	-1343
▁废	-1344
▁减	-1345
▁穆	-1346
▁假	-1347
▁过程	-1348
ia	-1349
▁of	-1350
▁余	-1351
▁清朝	-1352
▁纲	-1353
▁建设	-1354
▁方法	-1355
iv	-1356
▁不是	-1357
▁呈	-1358
▁探	-1359
ir	-1360
▁凯	-1361
▁之前	-1362
▁董	-1363
▁一起	-1364
▁军事	-1365
▁房	-1366
▁检	-1367
▁冲	-1368
▁会议	-1369
ot	-1370
▁宁	-1371
▁一部分	-1372
▁重新	-1373
▁想	-1374
▁葡	-1375
▁辐	-1376
▁互	-1377
保护	-1378
▁直接	-1379
▁共同	-1380
▁年间	-1381
▁位置	-1382
▁广州	-1383
▁唱	-1384
▁刺	-1385
▁创作	-1386
▁频	-1387
▁羽	-1388
▁舞	-1389
▁力	-1390
▁论	-1391
▁梁	-1392
▁大量	-1393
▁小说	-1394
▁隶	-1395
▁尤	-1396
▁路线	-1397
▁主持	-1398
▁撤	-1399
▁始建	-1400
▁单曲	-1401
▁质	-1402
▁Y	-1403
▁科学	-1404
▁请	-1405
产党	-1406
▁保护	-1407
▁...	-1408
▁破	-1409
▁机构	-1410
▁雅	-1411
▁构	-1412
▁天主教	-1413
▁演出	-1414
▁专业	-1415
▁计算	-1416
▁齐	-1417
▁夺	-1418
▁境	-1419
▁制造	-1420
▁形式	-1421
▁玛	-1422
▁一条	-1423
▁189	-1424
▁私	-1425
▁直到	-1426
▁级	-1427
▁横	-1428
▁协会	-1429
▁南极	-1430
▁众	-1431
▁辖	-1432
▁吸	-1433
▁绝	-1434
▁甘	-1435
▁为主	-1436
▁工业	-1437
▁类似	-1438
▁聚	-1439
▁反应	-1440
▁帮	-1441
▁环境	-1442
im	-1443
▁十二	-1444
▁苏联	-1445
▁品	-1446
▁现时	-1447
▁适	-1448
▁货	-1449
▁阿拉	-1450
▁完全	-1451
▁儿子	-1452
▁有关	-1453
▁利用	-1454
▁一颗	-1455
▁相当	-1456
ag	-1457
▁町	-1458
▁尽	-1459
▁隶属	-1460
▁企业	-1461
▁公分	-1462
▁三十	-1463
▁理论	-1464
▁玩	-1465
▁含	-1466
▁树	-1467
▁热带	-1468
▁巴士	-1469
媒体	-1470
▁射	-1471
▁当选	-1472
▁甚至	-1473
▁将军	-1474
▁逃	-1475
▁切	-1476
▁英语	-1477
▁以上	-1478
▁轻	-1479
▁自然	-1480
▁生长	-1481
▁牛	-1482
▁习	-1483
▁曼	-1484
▁弹	-1485
▁人类	-1486
▁介	-1487
▁思	-1488
▁32	-1489
▁发布	-1490
▁东部	-1491
▁加拿	-1492
▁春	-1493
▁加拿大	-1494
▁录	-1495
▁执行	-1496
▁1999	-1497
地区	-1498
▁导演	-1499
▁偏	-1500
▁顶	-1501
▁劳	-1502
▁道路	-1503
▁拍摄	-1504
▁景	-1505
▁野	-1506
▁必须	-1507
▁士	-1508
▁随后	-1509
▁60	-1510
▁去世	-1511
▁可达	-1512
▁民主	-1513
▁俱	-1514
▁漫画	-1515
▁物种	-1516
▁河南	-1517
▁合并	-1518
▁三个	-1519
▁数据	-1520
▁异	-1521
▁何	-1522
▁礼	-1523
▁高速	-1524
▁不能	-1525
▁公尺	-1526
▁福建	-1527
▁葡萄	-1528
▁步	-1529
▁曹	-1530
▁轨道	-1531
▁段	-1532
▁战斗	-1533
▁处理	-1534
▁三年	-1535
▁届	-1536
▁魔	-1537
ation	-1538
um	-1539
▁调查	-1540
▁照	-1541
▁生物	-1542
▁我们	-1543
▁拿	-1544
物馆	-1545
▁唯一	-1546
▁应用	-1547
▁实际	-1548
▁功能	-1549
▁军队	-1550
▁洪	-1551
▁关于	-1552
▁小时	-1553
▁公开	-1554
▁显示	-1555
▁选择	-1556
▁它们	-1557
▁地下	-1558
▁团体	-1559
▁你	-1560
▁绿	-1561
▁佩	-1562
▁末	-1563
▁号线	-1564
▁1998	-1565
▁森	-1566
▁血	-1567
▁博士	-1568
▁35	-1569
▁一部	-1570
▁基本	-1571
▁达到	-1572
▁而且	-1573
▁元年	-1574
克斯	-1575
▁处于	-1576
▁出生	-1577
▁翻	-1578
▁很多	-1579
▁穿	-1580
▁模式	-1581
▁马来	-1582
▁商业	-1583
▁民国	-1584
▁度	-1585
▁荣	-1586
▁兄	-1587
▁文物保护	-1588
▁流域	-1589
▁南京	-1590
▁中部	-1591
▁表现	-1592
▁天文	-1593
▁国王	-1594
▁守	-1595
▁市场	-1596
▁各种	-1597
▁基础	-1598
▁差	-1599
世界	-1600
▁1990	-1601
▁青年	-1602
▁球员	-1603
▁综	-1604
▁民族	-1605
▁越南	-1606
ra	-1607
▁月台	-1608
▁其后	-1609
▁别	-1610
▁舰	-1611
▁连接	-1612
▁00	-1613
▁征	-1614
▁演员	-1615
▁天津	-1616
em	-1617
▁戏	-1618
▁男子	-1619
▁辽	-1620
▁积	-1621
▁再次	-1622
▁玉	-1623
▁江苏	-1624
▁阶	-1625
20	-1626
▁方向	-1627
▁能够	-1628
▁安全	-1629
▁教堂	-1630
▁一样	-1631
▁训	-1632
▁空间	-1633
▁读	-1634
▁护	-1635
▁补	-1636
▁灵	-1637
▁设置	-1638
▁地球	-1639
▁反对	-1640
▁价	-1641
▁锦标	-1642
乐部	-1643
▁记载	-1644
▁骑	-1645
▁母亲	-1646
▁最初	-1647
▁广场	-1648
▁限	-1649
▁俱乐部	-1650
▁巴西	-1651
▁全球	-1652
▁淡	-1653
▁br	-1654
▁云南	-1655
▁源	-1656
▁又名	-1657
▁藏	-1658
▁或者	-1659
st	-1660
▁公布	-1661
▁速	-1662
▁社区	-1663
▁体长	-1664
▁难	-1665
电视	-1666
▁境内	-1667
▁实验	-1668
▁郭	-1669
▁又称	-1670
▁销	-1671
▁早期	-1672
▁官方	-1673
ec	-1674
▁秦	-1675
鳍鱼	-1676
▁188	-1677
▁1997	-1678
▁厅	-1679
▁资料	-1680
▁法律	-1681
▁先后	-1682
▁36	-1683
▁曾任	-1684
▁第一次	-1685
系统	-1686
▁恩	-1687
▁经营	-1688
▁致	-1689
▁每年	-1690
▁辐鳍鱼	-1691
▁电视剧	-1692
▁智	-1693
▁In	-1694
▁审	-1695
▁公路	-1696
▁主教	-1697
▁片	-1698
▁压	-1699
▁毫	-1700
治区	-1701
▁指挥	-1702
▁投资	-1703
▁公共	-1704
▁议员	-1705
▁不久	-1706
▁名字	-1707
▁定义	-1708
▁赢	-1709
▁固	-1710
▁怀	-1711
▁博物馆	-1712
中心	-1713
▁离开	-1714
▁大型	-1715
▁媒体	-1716
▁最早	-1717
▁药	-1718
▁票	-1719
▁纽约	-1720
▁+	-1721
▁魏	-1722
▁33	-1723
运动	-1724
▁医院	-1725
▁产品	-1726
▁概	-1727
19	-1728
▁第五	-1729
放军	-1730
▁家庭	-1731
▁使得	-1732
▁颁	-1733
▁80	-1734
▁澳门	-1735
▁中国人民	-1736
▁申	-1737
▁大多	-1738
▁送	-1739
▁墨	-1740
▁借	-1741
▁乙	-1742
▁陕	-1743
▁妻	-1744
▁业务	-1745
▁奉	-1746
▁湖南	-1747
▁基督	-1748
▁击败	-1749
▁这是	-1750
▁坑	-1751
▁招	-1752
▁符	-1753
▁the	-1754
▁词	-1755
▁购	-1756
▁行动	-1757
▁能力	-1758
▁课	-1759
▁召	-1760
▁45	-1761
ans	-1762
▁广播	-1763
▁村落	-1764
▁室	-1765
ay	-1766
▁主题	-1767
▁勒	-1768
▁连续	-1769
▁蒙古	-1770
▁网络	-1771
▁摄	-1772
▁操	-1773
▁文学	-1774
▁目的	-1775
▁丁	-1776
▁缺	-1777
▁层	-1778
▁名为	-1779
▁听	-1780
▁救	-1781
th	-1782
▁一年	-1783
▁纪录	-1784
▁出任	-1785
▁孔	-1786
▁1996	-1787
▁找	-1788
▁The	-1789
▁贡	-1790
▁逐渐	-1791
尔斯	-1792
▁大部分	-1793
▁此后	-1794
▁赛季	-1795
▁部长	-1796
▁全部	-1797
▁约翰	-1798
▁尾	-1799
▁昆	-1800
▁二年	-1801
▁戴	-1802
▁沈	-1803
▁兴建	-1804
▁输	-1805
op	-1806
10	-1807
▁比较	-1808
▁枪	-1809
▁希望	-1810
▁免	-1811
▁抵	-1812
▁岩	-1813
▁汽	-1814
▁事务	-1815
▁杂志	-1816
▁人员	-1817
▁蔡	-1818
▁锦标赛	-1819
▁仍然	-1820
▁物理	-1821
▁太平洋	-1822
▁1980	-1823
▁这样	-1824
▁时候	-1825
▁函	-1826
▁超级	-1827
▁相同	-1828
▁邻	-1829
▁办公	-1830
▁?	-1831
进士	-1832
▁统治	-1833
▁描述	-1834
西省	-1835
▁任务	-1836
▁恒星	-1837
▁告	-1838
▁坚	-1839
▁及其	-1840
▁译	-1841
▁判	-1842
▁书记	-1843
▁原因	-1844
▁讨	-1845
▁a	-1846
▁70	-1847
ul	-1848
▁赞	-1849
▁新加	-1850
▁划	-1851
▁激	-1852
▁年度	-1853
▁两人	-1854
▁新加坡	-1855
▁经常	-1856
代表	-1857
▁吕	-1858
▁34	-1859
▁地铁	-1860
▁187	-1861
▁革命	-1862
▁大约	-1863
▁帝国	-1864
▁敌	-1865
▁化学	-1866
▁相对	-1867
▁训练	-1868
▁行为	-1869
▁部队	-1870
▁银行	-1871
▁拜	-1872
▁君	-1873
▁助	-1874
▁1995	-1875
▁紧	-1876
▁恐	-1877
▁顾	-1878
▁1994	-1879
委会	-1880
▁荷兰	-1881
▁透过	-1882
▁以来	-1883
▁充	-1884
▁禁	-1885
▁墓	-1886
▁攻击	-1887
▁成绩	-1888
og	-1889
▁群岛	-1890
▁伦敦	-1891
oc	-1892
▁当中	-1893
▁]	-1894
▁铜	-1895
▁38	-1896
▁回到	-1897
▁眼	-1898
▁一家	-1899
▁w	-1900
▁任命	-1901
▁宗教	-1902
▁竹	-1903
▁90	-1904
▁跨	-1905
▁英格兰	-1906
▁土地	-1907
州市	-1908
▁休	-1909
▁类型	-1910
▁色	-1911
▁中文	-1912
▁居住	-1913
▁轮	-1914
48	-1915
ri	-1916
▁行政区	-1917
▁钢	-1918
▁电视台	-1919
▁[	-1920
▁截	-1921
▁钱	-1922
▁盖	-1923
▁戈	-1924
▁赢得	-1925
▁仪	-1926
▁返	-1927
▁冬	-1928
▁186	-1929
▁奥运	-1930
▁硬	-1931
▁严重	-1932
▁规定	-1933
▁暴	-1934
共产党	-1935
▁光绪	-1936
▁1993	-1937
▁海域	-1938
▁家族	-1939
30	-1940
▁第一个	-1941
▁作用	-1942
▁人工	-1943
▁羽毛	-1944
▁不少	-1945
▁1992	-1946
▁星期	-1947
▁首都	-1948
▁叫	-1949
▁取代	-1950
▁鸟	-1951
▁寻	-1952
▁阳	-1953
▁宇	-1954
▁奥林	-1955
▁不会	-1956
▁辛	-1957
▁捷	-1958
▁决赛	-1959
▁量	-1960
▁至今	-1961
▁整个	-1962
▁堂	-1963
▁卷	-1964
▁An	-1965
▁歌手	-1966
▁庆	-1967
▁散	-1968
▁阴	-1969
▁希腊	-1970
▁演唱	-1971
▁科技	-1972
▁l	-1973
▁500	-1974
▁御	-1975
▁遗址	-1976
▁繁	-1977
ant	-1978
▁帮助	-1979
▁第二次	-1980
▁国立	-1981
ut	-1982
▁组合	-1983
▁分类	-1984
▁户	-1985
▁图书	-1986
▁领域	-1987
▁参赛	-1988
斯坦	-1989
▁该地	-1990
▁尚未	-1991
▁萧	-1992
▁匈	-1993
▁委	-1994
▁–	-1995
▁知名	-1996
▁首府	-1997
▁死亡	-1998
▁夜	-1999
▁马来西亚	-2000
比亚	-2001
▁37	-2002
▁不明	-2003
▁唱片	-2004
▁恢	-2005
▁自动	-2006
普查	-2007
▁以后	-2008
▁人口普查	-2009
▁加上	-2010
▁建造	-2011
▁学者	-2012
▁牠	-2013
▁避	-2014
▁刚	-2015
▁饰演	-2016
▁犹	-2017
▁飞机	-2018
▁非洲	-2019
▁并于	-2020
▁原本	-2021
▁作家	-2022
ce	-2023
▁幼	-2024
▁话	-2025
▁娱	-2026
▁葡萄牙	-2027
▁凤	-2028
▁°	-2029
▁鲤	-2030
▁董事	-2031
▁遇	-2032
▁表演	-2033
▁弟	-2034
战争	-2035
▁无线	-2036
ers	-2037
▁议会	-2038
▁努	-2039
美洲	-2040
▁夏季	-2041
▁身份	-2042
▁培	-2043
▁祭	-2044
▁油	-2045
联赛	-2046
40	-2047
▁信息	-2048
▁如下	-2049
▁1991	-2050
▁崇	-2051
▁引起	-2052
▁员	-2053
▁恢复	-2054
▁娱乐	-2055
▁日至	-2056
▁陆军	-2057
▁隆	-2058
▁风格	-2059
▁协助	-2060
▁每个	-2061
▁开放	-2062
▁紫	-2063
▁发动	-2064
▁哲	-2065
▁还是	-2066
▁流行	-2067
▁然后	-2068
▁河北	-2069
▁国内	-2070
▁德语	-2071
▁Z	-2072
▁柏	-2073
▁搭	-2074
▁官员	-2075
▁广泛	-2076
ap	-2077
▁目标	-2078
▁条约	-2079
▁缩	-2080
匹克	-2081
▁立法	-2082
ard	-2083
▁中国共产党	-2084
▁继承	-2085
▁拆	-2086
▁象	-2087
▁效力	-2088
▁享	-2089
▁绘	-2090
▁k	-2091
▁孟	-2092
▁大区	-2093
▁线路	-2094
▁水域	-2095
▁庙	-2096
▁什	-2097
▁左右	-2098
▁稳	-2099
ind	-2100
解放军	-2101
▁陨	-2102
▁桑	-2103
▁逝	-2104
▁祖父	-2105
▁高级	-2106
▁女儿	-2107
▁皇帝	-2108
▁扎	-2109
书记	-2110
▁有时	-2111
▁邮	-2112
▁外交	-2113
▁冯	-2114
▁溪	-2115
▁零	-2116
中央	-2117
▁兄弟	-2118
▁恶	-2119
▁坦	-2120
学位	-2121
▁伤	-2122
▁发射	-2123
公路	-2124
▁』	-2125
▁『	-2126
▁秘书	-2127
av	-2128
学校	-2129
▁持续	-2130
▁志	-2131
▁同样	-2132
▁颜	-2133
▁人士	-2134
▁邓	-2135
▁潜	-2136
▁案	-2137
贸易	-2138
▁内部	-2139
▁汤	-2140
▁综合	-2141
▁研究所	-2142
▁39	-2143
▁网站	-2144
▁隶属于	-2145
▁换	-2146
▁创办	-2147
▁飞行	-2148
▁〉	-2149
▁克里	-2150
▁初期	-2151
氧化	-2152
▁HD	-2153
▁赴	-2154
▁〈	-2155
▁改变	-2156
▁麻	-2157
▁规划	-2158
▁一定	-2159
▁只是	-2160
▁改编	-2161
▁中国人民解放军	-2162
拉斯	-2163
▁乃	-2164
▁川	-2165
▁汽车	-2166
▁用来	-2167
▁危	-2168
▁创立	-2169
▁呼	-2170
▁第六	-2171
▁盐	-2172
▁湾	-2173
▁日起	-2174
▁篮	-2175
▁残	-2176
▁脱	-2177
▁统计	-2178
▁屋	-2179
▁爆发	-2180
▁杯	-2181
▁遭到	-2182
大战	-2183
▁建于	-2184
▁过去	-2185
▁候	-2186
▁族	-2187
▁人们	-2188
ub	-2189
▁妻子	-2190
▁十一	-2191
▁普通	-2192
▁羽毛球	-2193
ie	-2194
▁宪	-2195
▁访	-2196
▁1988	-2197
▁从事	-2198
▁健	-2199
80	-2200
▁奥林匹克	-2201
▁多个	-2202
▁毫米	-2203
▁常见	-2204
▁黎	-2205
▁改名	-2206
▁辅	-2207
▁战役	-2208
▁玩家	-2209
▁氏	-2210
▁政策	-2211
▁暗	-2212
60	-2213
▁盛	-2214
▁旗下	-2215
▁邀	-2216
▁1950	-2217
▁架	-2218
▁资格	-2219
▁有些	-2220
▁排名	-2221
▁运行	-2222
▁肯	-2223
▁十分	-2224
▁馆	-2225
▁分钟	-2226
▁殿	-2227
▁细胞	-2228
▁肉	-2229
▁公主	-2230
▁湖北	-2231
▁彭	-2232
▁一带	-2233
▁租	-2234
▁针	-2235
▁易	-2236
▁侧	-2237
▁公元	-2238
▁四年	-2239
▁柴	-2240
尔德	-2241
▁重庆	-2242
▁西藏	-2243
▁高中	-2244
▁桃	-2245
▁概念	-2246
大会	-2247
ak	-2248
▁佐	-2249
▁蒋	-2250
▁乾	-2251
▁就读	-2252
▁或是	-2253
▁电脑	-2254
▁1989	-2255
▁逝世	-2256
ov	-2257
▁～	-2258
▁函数	-2259
▁因而	-2260
▁高等	-2261
▁偶	-2262
▁全长	-2263
▁驱	-2264
▁播放	-2265
▁隐	-2266
▁替	-2267
▁1949	-2268
▁涉	-2269
▁乡试	-2270
▁冷	-2271
▁平台	-2272
▁体系	-2273
▁昭	-2274
▁分析	-2275
▁基金	-2276
▁巴黎	-2277
▁几乎	-2278
▁总部	-2279
▁蒂	-2280
▁多次	-2281
▁铁道	-2282
▁选区	-2283
ab	-2284
▁指出	-2285
▁置	-2286
美元	-2287
▁挑	-2288
大利亚	-2289
▁前身	-2290
▁速度	-2291
▁交流	-2292
▁42	-2293
▁刑	-2294
▁阻	-2295
▁登进士	-2296
▁钟	-2297
▁雪	-2298
▁咸	-2299
▁婚	-2300
▁1970	-2301
▁旁	-2302
▁波兰	-2303
▁慈	-2304
▁这里	-2305
▁影片	-2306
▁南北	-2307
▁侍	-2308
▁客运	-2309
▁释	-2310
▁列为	-2311
▁地位	-2312
▁更名	-2313
▁骨	-2314
▁阵	-2315
▁广西	-2316
▁潘	-2317
▁小学	-2318
▁g	-2319
▁虚	-2320
▁辞	-2321
▁遂	-2322
▁建议	-2323
▁淡水	-2324
▁柯	-2325
▁果	-2326
▁联邦	-2327
▁记录	-2328
▁叙	-2329
▁农业	-2330
▁值	-2331
▁彼	-2332
12	-2333
▁山脉	-2334
▁途	-2335
▁基于	-2336
▁报告	-2337
▁典	-2338
▁用户	-2339
▁安徽	-2340
▁股份	-2341
ist	-2342
▁55	-2343
▁大道	-2344
▁旅游	-2345
▁结婚	-2346
▁尽管	-2347
▁忠	-2348
▁状态	-2349
▁1985	-2350
▁现任	-2351
▁园	-2352
ang	-2353
▁统一	-2354
▁界	-2355
▁设备	-2356
▁收录	-2357
▁拒	-2358
▁袁	-2359
▁长期	-2360
▁年轻	-2361
演员	-2362
▁伊斯	-2363
▁潮	-2364
▁Al	-2365
▁重建	-2366
▁良	-2367
▁厂	-2368
▁掌	-2369
▁端	-2370
▁谷	-2371
▁实现	-2372
委员会	-2373
▁五年	-2374
▁接近	-2375
▁跳	-2376
ill	-2377
▁侯	-2378
▁重点	-2379
▁选手	-2380
▁制度	-2381
▁澳大利亚	-2382
▁这一	-2383
▁儿童	-2384
▁码	-2385
▁东西	-2386
斯科	-2387
▁栽	-2388
▁地震	-2389
▁快速	-2390
▁柳	-2391
▁设施	-2392
ud	-2393
▁尊	-2394
▁所在	-2395
▁主演	-2396
▁侵	-2397
▁大楼	-2398
▁缅	-2399
▁友	-2400
▁王朝	-2401
70	-2402
节目	-2403
▁佛教	-2404
▁求	-2405
▁频道	-2406
▁上映	-2407
▁销售	-2408
▁数学	-2409
▁1986	-2410
▁编号	-2411
▁习性	-2412
▁改革	-2413
▁教会	-2414
▁贾	-2415
▁鼓	-2416
▁国会	-2417
▁机会	-2418
材料	-2419
▁席	-2420
▁台北市	-2421
▁梦	-2422
▁牧	-2423
ty	-2424
▁宣传	-2425
▁阮	-2426
▁保持	-2427
▁300	-2428
▁一段	-2429
▁数量	-2430
TA	-2431
▁宜	-2432
▁车辆	-2433
▁1960	-2434
▁仁	-2435
▁螺	-2436
▁视为	-2437
▁特殊	-2438
▁48	-2439
自治区	-2440
▁图书馆	-2441
▁养	-2442
▁展开	-2443
▁分子	-2444
▁乾隆	-2445
▁交易	-2446
▁隔	-2447
▁瑞典	-2448
▁建成	-2449
▁秋	-2450
▁43	-2451
▁1984	-2452
隧道	-2453
▁代码	-2454
时间	-2455
▁发售	-2456
▁直至	-2457
▁四十	-2458
▁Mar	-2459
▁1945	-2460
▁卡尔	-2461
▁特征	-2462
▁不断	-2463
▁1987	-2464
▁蛋	-2465
▁奥斯	-2466
▁汇	-2467
▁澳洲	-2468
▁豪	-2469
▁仙	-2470
▁茶	-2471
▁暂	-2472
ik	-2473
▁损	-2474
▁IS	-2475
▁大臣	-2476
ine	-2477
▁斗	-2478
▁此时	-2479
▁邀请	-2480
▁未来	-2481
▁警察	-2482
▁威廉	-2483
▁高速公路	-2484
▁南极洲	-2485
ell	-2486
▁条件	-2487
▁算	-2488
▁两种	-2489
牙利	-2490
▁匈牙利	-2491
▁共和国	-2492
▁罪	-2493
▁曾祖	-2494
▁46	-2495
▁硕	-2496
▁善	-2497
▁滑	-2498
▁章	-2499
▁基地	-2500
11	-2501
世纪	-2502
▁185	-2503
▁靠	-2504
ex	-2505
合物	-2506
▁矿	-2507
▁运输	-2508
▁促	-2509
▁炮	-2510
▁批准	-2511
▁确定	-2512
▁斯特	-2513
▁精神	-2514
▁司令	-2515
铁路	-2516
▁1983	-2517
▁允	-2518
▁投入	-2519
地利	-2520
▁亚目	-2521
▁栽培	-2522
▁奥地利	-2523
动物	-2524
▁观众	-2525
▁尖	-2526
▁历任	-2527
▁犯	-2528
▁陶	-2529
▁é	-2530
维亚	-2531
▁解决	-2532
▁稳定	-2533
▁古代	-2534
▁i	-2535
▁v	-2536
▁律	-2537
▁减少	-2538
▁雄	-2539
▁篮球	-2540
▁部份	-2541
▁夺得	-2542
▁1982	-2543
▁r	-2544
▁詹	-2545
▁灭	-2546
▁49	-2547
▁板	-2548
▁课程	-2549
▁王国	-2550
▁评论	-2551
▁筹	-2552
▁in	-2553
▁国务	-2554
▁返回	-2555
法院	-2556
▁44	-2557
▁操作	-2558
▁移动	-2559
▁高雄	-2560
▁邨	-2561
▁杭	-2562
▁虎	-2563
▁文件	-2564
▁江西	-2565
▁水库	-2566
▁元素	-2567
▁载	-2568
▁崔	-2569
▁47	-2570
▁搜	-2571
▁作战	-2572
▁迈	-2573
▁hans	-2574
▁武器	-2575
▁部门	-2576
▁出来	-2577
BA	-2578
▁断	-2579
▁四个	-2580
▁总督	-2581
▁第七	-2582
ob	-2583
▁总理	-2584
▁表面	-2585
▁所属	-2586
▁粉	-2587
▁尚书	-2588
▁九龙	-2589
▁台南	-2590
▁剑	-2591
▁脚	-2592
▁二世	-2593
▁临时	-2594
▁记者	-2595
▁同意	-2596
▁北京市	-2597
▁自治	-2598
▁酒店	-2599
▁倒	-2600
▁65	-2601
▁海岸	-2602
▁保留	-2603
▁来源	-2604
▁结合	-2605
▁75	-2606
▁纯	-2607
▁作曲	-2608
▁52	-2609
▁芬	-2610
▁加盟	-2611
▁错	-2612
▁and	-2613
▁亨	-2614
▁迷	-2615
▁准备	-2616
▁原名	-2617
▁意思	-2618
人员	-2619
▁泰国	-2620
▁瑞士	-2621
ip	-2622
▁同一	-2623
▁维持	-2624
▁de	-2625
▁等等	-2626
▁Q	-2627
▁之外	-2628
▁寄	-2629
▁知县	-2630
▁基督教	-2631
▁拒绝	-2632
▁幸	-2633
▁十六	-2634
▁会试	-2635
▁进攻	-2636
▁不再	-2637
▁当年	-2638
▁其它	-2639
▁本站	-2640
▁惠	-2641
▁鱼类	-2642
▁器	-2643
▁机械	-2644
▁有效	-2645
运动会	-2646
▁隧道	-2647
all	-2648
▁一场	-2649
▁和平	-2650
▁西南部	-2651
ess	-2652
▁新疆	-2653
ack	-2654
▁撞	-2655
世界大战	-2656
▁占领	-2657
▁望	-2658
▁一世	-2659
▁翻译	-2660
▁覆	-2661
▁高度	-2662
▁姓	-2663
▁以前	-2664
▁治疗	-2665
▁现象	-2666
▁插	-2667
▁质量	-2668
▁限制	-2669
▁金属	-2670
▁到达	-2671
▁构成	-2672
▁殖	-2673
15	-2674
▁一同	-2675
▁支援	-2676
▁西北部	-2677
▁价值	-2678
▁硕士	-2679
▁证明	-2680
▁Ar	-2681
▁菲律	-2682
▁是否	-2683
▁东方	-2684
朋友	-2685
▁旅客	-2686
▁64	-2687
▁菲律宾	-2688
▁驾	-2689
▁山西	-2690
▁身体	-2691
▁阶段	-2692
▁乔治	-2693
议院	-2694
▁知道	-2695
▁各地	-2696
▁旋	-2697
▁十三	-2698
▁纵	-2699
▁随著	-2700
西哥	-2701
▁河畔	-2702
▁雕	-2703
▁集中	-2704
est	-2705
up	-2706
▁有人	-2707
▁贸易	-2708
▁天体	-2709
▁明显	-2710
▁沉	-2711
▁创建	-2712
▁明治	-2713
▁吃	-2714
▁而是	-2715
▁广东省	-2716
▁森林	-2717
▁估	-2718
▁拉丁	-2719
▁看到	-2720
18	-2721
▁河流	-2722
▁著作	-2723
▁办理	-2724
▁尼亚	-2725
▁比利	-2726
▁曾祖父	-2727
▁笔	-2728
▁名单	-2729
▁启用	-2730
▁楚	-2731
▁Un	-2732
ok	-2733
▁卫星	-2734
▁实施	-2735
ain	-2736
▁锡	-2737
▁殖民	-2738
▁灰	-2739
▁患	-2740
▁灌	-2741
▁调整	-2742
▁资讯	-2743
ows	-2744
▁十八	-2745
▁渡	-2746
▁世界杯	-2747
▁署	-2748
▁朗	-2749
▁孩	-2750
▁东北部	-2751
▁学术	-2752
▁坐标	-2753
▁主角	-2754
ct	-2755
16	-2756
▁授予	-2757
▁玻	-2758
▁核心	-2759
▁溶	-2760
▁职务	-2761
▁坎	-2762
工程	-2763
▁大多数	-2764
▁产业	-2765
▁53	-2766
▁大致	-2767
▁题	-2768
▁策	-2769
▁1979	-2770
▁破坏	-2771
▁地点	-2772
ev	-2773
▁急	-2774
▁鲶	-2775
17	-2776
▁毒	-2777
▁犹太	-2778
▁皇家	-2779
▁续	-2780
▁违	-2781
▁乐团	-2782
▁该省	-2783
▁营运	-2784
▁联合国	-2785
▁拓	-2786
▁金融	-2787
13	-2788
▁广告	-2789
银行	-2790
▁双方	-2791
▁地图	-2792
▁SA	-2793
▁腹	-2794
▁协议	-2795
▁未能	-2796
▁绝对	-2797
▁只能	-2798
▁col	-2799
▁一所	-2800
▁来到	-2801
▁葛	-2802
▁教学	-2803
▁引种	-2804
▁生命	-2805
▁餐	-2806
▁白色	-2807
▁济	-2808
▁多年	-2809
▁材料	-2810
▁停止	-2811
▁枚	-2812
▁中间	-2813
▁买	-2814
▁说法	-2815
90	-2816
▁深度	-2817
▁程序	-2818
▁幕	-2819
▁访问	-2820
▁Wind	-2821
▁市长	-2822
▁1978	-2823
▁尤其	-2824
▁皇后	-2825
▁相似	-2826
▁厄	-2827
▁数字	-2828
▁西方	-2829
eb	-2830
▁小组	-2831
▁专门	-2832
▁万人	-2833
▁饮	-2834
▁棒	-2835
▁大会	-2836
▁再度	-2837
▁测试	-2838
▁猪	-2839
▁跑	-2840
▁童	-2841
▁提名	-2842
▁马克	-2843
▁应该	-2844
▁静	-2845
▁正在	-2846
▁Sh	-2847
尔兰	-2848
▁少年	-2849
▁武汉	-2850
▁融	-2851
▁农村	-2852
▁58	-2853
▁少数	-2854
▁上市	-2855
▁变成	-2856
▁1981	-2857
▁俗	-2858
ice	-2859
▁素	-2860
▁袭	-2861
伯特	-2862
▁之中	-2863
▁撤销	-2864
▁粗	-2865
▁乘客	-2866
▁奥林匹克运动会	-2867
▁收购	-2868
▁解释	-2869
▁势	-2870
▁校长	-2871
▁教练	-2872
▁物质	-2873
▁地面	-2874
▁沟	-2875
▁56	-2876
▁山东省	-2877
▁洋	-2878
▁谈	-2879
▁品牌	-2880
▁某些	-2881
▁字母	-2882
▁贵州	-2883
▁迎	-2884
▁珍	-2885
▁贝尔	-2886
25	-2887
▁榜	-2888
▁彩	-2889
▁秀	-2890
▁特有	-2891
▁墨西哥	-2892
▁事业	-2893
▁180	-2894
▁深圳	-2895
▁四川省	-2896
14	-2897
▁办公室	-2898
▁作者	-2899
▁司马	-2900
▁网路	-2901
▁雨	-2902
ne	-2903
▁程度	-2904
▁陕西	-2905
▁十五	-2906
▁叛	-2907
▁先生	-2908
▁54	-2909
欢迎	-2910
▁住宅	-2911
▁长度	-2912
▁喜欢	-2913
▁允许	-2914
▁之下	-2915
▁太子	-2916
▁裁	-2917
▁伊斯兰	-2918
▁电力	-2919
▁失去	-2920
▁慕	-2921
▁以外	-2922
▁藤	-2923
▁燃	-2924
▁软件	-2925
ph	-2926
▁抗日	-2927
▁容易	-2928
▁从而	-2929
▁日军	-2930
▁大厦	-2931
▁次年	-2932
▁而成	-2933
▁规模	-2934
▁模型	-2935
▁市区	-2936
▁150	-2937
▁珠	-2938
▁思想	-2939
▁运营	-2940
▁400	-2941
▁资源	-2942
四年	-2943
oun	-2944
斯基	-2945
▁引擎	-2946
▁Windows	-2947
▁堡	-2948
▁小型	-2949
▁花园	-2950
▁仔	-2951
▁发电	-2952
▁大小	-2953
▁民间	-2954
▁球季	-2955
▁搬	-2956
▁出口	-2957
▁tw	-2958
▁公民	-2959
议会	-2960
▁绕	-2961
▁原来	-2962
▁移民	-2963
▁地理	-2964
▁胜利	-2965
▁失败	-2966
▁一级	-2967
▁中山	-2968
▁多种	-2969
▁店	-2970
▁亚历	-2971
▁凭	-2972
▁年底	-2973
▁文字	-2974
▁本身	-2975
▁识	-2976
▁扬	-2977
▁东南部	-2978
▁边界	-2979
▁舍	-2980
▁针对	-2981
▁执导	-2982
▁阿拉伯	-2983
系列	-2984
▁观察	-2985
▁哈尔	-2986
▁医学	-2987
▁hk	-2988
▁II	-2989
▁编辑	-2990
▁批评	-2991
▁折	-2992
▁粤	-2993
▁不可	-2994
▁机关	-2995
▁大使	-2996
▁办事	-2997
▁讨论	-2998
德里	-2999
▁国防	-3000
▁撰	-3001
▁戏剧	-3002
▁围绕	-3003
▁投票	-3004
▁爵	-3005
▁57	-3006
▁岛屿	-3007
▁力量	-3008
▁机车	-3009
▁简单	-3010
▁生涯	-3011
▁特色	-3012
▁土耳	-3013
▁闻	-3014
▁宾	-3015
▁洞	-3016
▁悬	-3017
▁土耳其	-3018
▁渔	-3019
▁传说	-3020
▁周边	-3021
▁另一	-3022
▁六年	-3023
▁颜色	-3024
▁滨	-3025
方面	-3026
▁提升	-3027
▁表达	-3028
▁人数	-3029
▁塞尔	-3030
▁其余	-3031
ity	-3032
▁疏	-3033
一步	-3034
▁特定	-3035
▁空军	-3036
▁火山	-3037
▁路易	-3038
▁两年	-3039
▁1958	-3040
if	-3041
und	-3042
▁鲍	-3043
▁成都	-3044
▁院长	-3045
▁西班牙语	-3046
▁安装	-3047
▁承认	-3048
▁鲈	-3049
▁储	-3050
▁申请	-3051
▁烟	-3052
▁捕	-3053
▁言	-3054
▁兼任	-3055
▁并非	-3056
▁取消	-3057
eg	-3058
▁鹿	-3059
▁刺史	-3060
▁倾	-3061
▁任职	-3062
▁这次	-3063
▁美术	-3064
▁自行	-3065
▁甘肃	-3066
▁大桥	-3067
▁一系列	-3068
▁奈	-3069
our	-3070
▁维尔	-3071
▁售	-3072
▁苏格兰	-3073
▁配合	-3074
▁创造	-3075
帝国	-3076
▁磁	-3077
▁屯	-3078
▁久	-3079
千米	-3080
▁介绍	-3081
▁普遍	-3082
▁大奖	-3083
▁印尼	-3084
ue	-3085
科学	-3086
▁财政	-3087
▁牙	-3088
▁厘	-3089
▁国务院	-3090
▁早年	-3091
▁实际上	-3092
▁经历	-3093
▁随着	-3094
▁陨石	-3095
▁环形	-3096
▁孩子	-3097
▁哲学	-3098
21	-3099
▁巨大	-3100
组织	-3101
▁完整	-3102
▁勋	-3103
▁台中	-3104
西洋	-3105
▁184	-3106
▁挑战	-3107
▁误	-3108
▁亿元	-3109
▁蕨	-3110
▁得以	-3111
▁迅	-3112
▁五十	-3113
▁奖项	-3114
▁浮	-3115
▁盘	-3116
▁克拉	-3117
▁棋	-3118
23	-3119
▁舞台	-3120
▁困	-3121
▁多数	-3122
▁屏	-3123
▁平方千米	-3124
▁1920	-3125
▁民众	-3126
▁挪	-3127
ich	-3128
▁猎	-3129
▁观测	-3130
▁走向	-3131
▁内阁	-3132
▁按照	-3133
▁方程	-3134
▁浙江省	-3135
▁江苏省	-3136
▁一百	-3137
ong	-3138
▁入选	-3139
▁布拉	-3140
▁桂	-3141
▁舒	-3142
▁固定	-3143
姆斯	-3144
▁1946	-3145
▁喷	-3146
▁学会	-3147
▁哥伦	-3148
▁亮	-3149
▁默	-3150
▁63	-3151
▁朋友	-3152
▁出战	-3153
▁并未	-3154
▁代理	-3155
代表大会	-3156
▁康熙	-3157
▁指定	-3158
▁注意	-3159
▁北海	-3160
▁al	-3161
▁命令	-3162
▁菜	-3163
ort	-3164
▁镇区	-3165
▁父母	-3166
▁战后	-3167
▁外国	-3168
▁背景	-3169
NA	-3170
▁牌	-3171
▁专家	-3172
▁化石	-3173
▁既	-3174
art	-3175
▁辽宁	-3176
▁率领	-3177
▁喀	-3178
▁法兰	-3179
▁日治	-3180
▁混合	-3181
▁提高	-3182
▁知识	-3183
▁红色	-3184
ian	-3185
▁对象	-3186
▁保存	-3187
▁海外	-3188
▁马尔	-3189
关系	-3190
▁Pro	-3191
▁疾	-3192
▁灯	-3193
▁抽	-3194
▁十年	-3195
24	-3196
因为	-3197
▁是因为	-3198
▁有所	-3199
▁宿	-3200
决赛	-3201
▁关注	-3202
▁带来	-3203
▁不得	-3204
▁卖	-3205
▁捐	-3206
▁找到	-3207
▁累	-3208
sp	-3209
▁刻	-3210
▁英雄	-3211
▁第八	-3212
▁南方	-3213
▁测量	-3214
民主	-3215
▁并入	-3216
▁海洋	-3217
▁彰	-3218
▁考虑	-3219
▁浅	-3220
▁球场	-3221
▁摄影	-3222
▁列入	-3223
▁近年	-3224
▁很大	-3225
▁月球	-3226
▁三角	-3227
▁覆盖	-3228
▁亚历山	-3229
▁上海市	-3230
ont	-3231
▁惊	-3232
▁档	-3233
▁份	-3234
▁牵	-3235
▁x	-3236
▁上阵	-3237
ign	-3238
▁起来	-3239
▁估计	-3240
ver	-3241
▁地质	-3242
▁计算机	-3243
ive	-3244
▁信号	-3245
▁e	-3246
▁改制	-3247
▁较为	-3248
▁1975	-3249
▁一项	-3250
▁政党	-3251
▁寿	-3252
▁黑色	-3253
▁&	-3254
▁性质	-3255
▁心理	-3256
▁熊	-3257
▁侦	-3258
▁宪法	-3259
igh	-3260
▁照片	-3261
▁1956	-3262
方米	-3263
▁引发	-3264
▁赖	-3265
▁妇	-3266
游戏	-3267
▁动作	-3268
▁延伸	-3269
▁吸引	-3270
▁团队	-3271
▁放弃	-3272
▁勇	-3273
▁赐	-3274
▁利亚	-3275
▁额	-3276
▁人大	-3277
▁68	-3278
▁加利	-3279
▁183	-3280
▁布鲁	-3281
▁主义	-3282
▁邦	-3283
▁几个	-3284
▁争议	-3285
▁意义	-3286
io	-3287
▁缅甸	-3288
▁大西洋	-3289
▁五月	-3290
▁北方	-3291
▁1930	-3292
▁填	-3293
▁烧	-3294
▁教师	-3295
▁砲	-3296
▁66	-3297
▁孝	-3298
▁唐朝	-3299
▁燕	-3300
▁接触	-3301
▁文章	-3302
▁76	-3303
▁丘	-3304
▁下午	-3305
▁・	-3306
28	-3307
▁糖	-3308
▁翌	-3309
▁事实	-3310
▁安排	-3311
▁国家队	-3312
▁避免	-3313
▁发出	-3314
▁平方米	-3315
▁秒	-3316
26	-3317
ge	-3318
▁机器	-3319
▁Com	-3320
▁镜	-3321
▁中共中央	-3322
▁59	-3323
▁罗斯	-3324
▁众多	-3325
▁丹麦	-3326
▁序	-3327
▁至少	-3328
▁竞争	-3329
▁Th	-3330
▁缓	-3331
蒙古	-3332
▁环形山	-3333
▁居民点	-3334
ry	-3335
▁政权	-3336
▁今日	-3337
委书记	-3338
▁进一步	-3339
▁吉林	-3340
▁食物	-3341
▁运动会	-3342
▁番	-3343
▁厘米	-3344
▁购买	-3345
▁太空	-3346
▁略	-3347
▁经典	-3348
▁时任	-3349
▁爱尔兰	-3350
▁消息	-3351
▁后期	-3352
电影	-3353
▁琉	-3354
联邦	-3355
▁伏	-3356
▁原始	-3357
▁120	-3358
▁露	-3359
▁实行	-3360
▁绍	-3361
▁支流	-3362
▁报道	-3363
▁原子	-3364
▁贺	-3365
▁宇宙	-3366
▁安德	-3367
27	-3368
▁火车	-3369
▁丽	-3370
▁工人	-3371
▁辆	-3372
▁法院	-3373
▁会员	-3374
▁以色	-3375
▁焦	-3376
▁占地	-3377
▁工厂	-3378
▁弘	-3379
▁年龄	-3380
ew	-3381
▁积极	-3382
▁浓	-3383
▁冰川	-3384
▁样	-3385
▁74	-3386
▁能量	-3387
▁1976	-3388
▁狮	-3389
▁蛋白	-3390
▁73	-3391
▁败	-3392
▁亲王	-3393
▁以色列	-3394
▁闽	-3395
▁刊	-3396
▁涅	-3397
▁1948	-3398
▁开设	-3399
▁须	-3400
▁视星	-3401
▁纸	-3402
▁挪威	-3403
▁才能	-3404
▁庞	-3405
▁摇	-3406
▁揭	-3407
▁办事处	-3408
▁芝	-3409
▁天皇	-3410
▁佳	-3411
▁得名	-3412
▁震	-3413
▁方案	-3414
▁丝	-3415
▁1947	-3416
▁主张	-3417
▁蛇	-3418
▁液	-3419
贝尔	-3420
▁编剧	-3421
▁1955	-3422
▁En	-3423
▁%	-3424
▁视星等	-3425
▁现场	-3426
▁嘉靖	-3427
▁迅速	-3428
▁医疗	-3429
▁武装	-3430
▁用作	-3431
▁复杂	-3432
ff	-3433
▁生成	-3434
▁凌	-3435
BS	-3436
▁1937	-3437
▁否	-3438
▁僧	-3439
▁朝廷	-3440
▁华人	-3441
▁君主	-3442
▁截至	-3443
尼斯	-3444
▁给予	-3445
▁隋	-3446
▁动力	-3447
▁发起	-3448
▁泉	-3449
▁标志	-3450
▁评价	-3451
▁队伍	-3452
▁试图	-3453
29	-3454
▁埃及	-3455
▁耳	-3456
▁玄	-3457
▁半岛	-3458
▁接替	-3459
▁1973	-3460
▁二人	-3461
▁种子	-3462
▁权力	-3463
▁传播	-3464
▁一支	-3465
▁作出	-3466
▁1940	-3467
▁贡献	-3468
▁修建	-3469
▁将会	-3470
▁备	-3471
▁斑	-3472
▁比如	-3473
▁淮	-3474
▁律师	-3475
▁推动	-3476
▁85	-3477
▁正常	-3478
▁师范	-3479
▁氧化	-3480
▁西安	-3481
▁象征	-3482
▁全面	-3483
▁垂	-3484
▁理事	-3485
▁九年	-3486
▁食品	-3487
oh	-3488
▁订	-3489
主角	-3490
▁荣誉	-3491
▁退休	-3492
▁软体	-3493
▁1952	-3494
▁CD	-3495
lay	-3496
▁1972	-3497
▁晶	-3498
交通	-3499
▁秘密	-3500
▁哥伦比亚	-3501
▁1977	-3502
▁Sp	-3503
▁通车	-3504
▁星系	-3505
▁说明	-3506
▁一度	-3507
▁装置	-3508
75	-3509
▁列出	-3510
▁召开	-3511
▁城堡	-3512
▁1966	-3513
▁大阪	-3514
▁对应	-3515
▁指导	-3516
▁主办	-3517
▁后者	-3518
▁之子	-3519
▁都市	-3520
▁工具	-3521
里亚	-3522
▁详	-3523
▁退出	-3524
▁乐队	-3525
▁基因	-3526
▁人民政府	-3527
▁上下	-3528
▁领袖	-3529
▁食用	-3530
▁对手	-3531
▁谋	-3532
▁莫斯科	-3533
▁藩	-3534
▁谥	-3535
▁名义	-3536
▁入侵	-3537
▁强烈	-3538
▁现今	-3539
▁士兵	-3540
▁1954	-3541
▁由此	-3542
球队	-3543
▁95	-3544
▁势力	-3545
▁酸	-3546
se	-3547
▁罗马尼亚	-3548
▁洗	-3549
▁健康	-3550
▁卡斯	-3551
▁伴	-3552
▁示	-3553
OS	-3554
▁柔	-3555
▁候选	-3556
▁仓	-3557
▁黑龙	-3558
▁行星	-3559
▁巴尔	-3560
▁艺人	-3561
▁长江	-3562
ib	-3563
▁600	-3564
BC	-3565
▁终于	-3566
时期	-3567
▁恰	-3568
▁山峰	-3569
▁被迫	-3570
▁青岛	-3571
▁弟弟	-3572
群岛	-3573
▁轰	-3574
▁郎	-3575
▁共产党	-3576
▁厚	-3577
▁退役	-3578
▁1974	-3579
▁顾问	-3580
▁空中	-3581
▁88	-3582
▁苗	-3583
▁直径	-3584
78	-3585
▁NBA	-3586
▁来说	-3587
▁这颗	-3588
ord	-3589
▁十字	-3590
▁JR	-3591
▁温度	-3592
▁不足	-3593
扮演	-3594
▁碳	-3595
▁需求	-3596
▁改造	-3597
▁禁止	-3598
▁丈	-3599
▁少女	-3600
▁毁	-3601
▁杀死	-3602
▁黄金	-3603
▁首先	-3604
▁姚	-3605
▁部落	-3606
▁南美洲	-3607
教育	-3608
▁渐	-3609
规模	-3610
▁在于	-3611
▁薛	-3612
▁效果	-3613
▁岭	-3614
▁69	-3615
▁讲述	-3616
西兰	-3617
▁万元	-3618
▁枢	-3619
▁展示	-3620
▁合成	-3621
▁合约	-3622
▁扶	-3623
▁布尔	-3624
▁以南	-3625
▁孤	-3626
▁水平	-3627
▁陷	-3628
▁Go	-3629
▁对外	-3630
▁经验	-3631
▁78	-3632
▁开通	-3633
▁1968	-3634
▁一切	-3635
▁留下	-3636
尼亚州	-3637
22	-3638
▁注册	-3639
▁信仰	-3640
▁底层	-3641
▁请求	-3642
ah	-3643
斯克	-3644
▁冬季	-3645
▁升任	-3646
▁码头	-3647
▁倍	-3648
▁1965	-3649
▁夫人	-3650
▁接任	-3651
▁鸡	-3652
▁主场	-3653
▁突然	-3654
▁姜	-3655
▁运作	-3656
▁第十一	-3657
▁出入	-3658
▁威尔	-3659
▁剩	-3660
▁直隶	-3661
▁800	-3662
▁黑龙江	-3663
▁杭州	-3664
▁配音	-3665
▁报导	-3666
▁撞击	-3667
▁奥运会	-3668
▁症	-3669
▁最近	-3670
▁峰	-3671
▁周围	-3672
▁阿根	-3673
▁规则	-3674
▁似	-3675
▁煤	-3676
▁较大	-3677
▁井	-3678
议员	-3679
▁基金会	-3680
拉夫	-3681
责任	-3682
▁陨石坑	-3683
ss	-3684
▁re	-3685
▁迫	-3686
▁优秀	-3687
萨斯	-3688
▁汉族	-3689
▁华盛	-3690
▁乳	-3691
▁设定	-3692
▁─	-3693
▁猫	-3694
▁萨尔	-3695
▁将领	-3696
▁阿根廷	-3697
▁1959	-3698
▁剧情	-3699
▁99	-3700
▁汪	-3701
米尔	-3702
▁仪式	-3703
▁昭和	-3704
▁确认	-3705
▁待	-3706
▁任教	-3707
▁带领	-3708
▁劳动	-3709
▁华盛顿	-3710
▁河南省	-3711
▁1000	-3712
▁丙	-3713
▁湿	-3714
▁歧	-3715
▁私人	-3716
▁探险	-3717
▁其实	-3718
▁丰富	-3719
▁东京都	-3720
▁羊	-3721
▁该市	-3722
▁符号	-3723
政协	-3724
▁发明	-3725
▁主持人	-3726
▁1964	-3727
▁1971	-3728
▁Le	-3729
▁疾病	-3730
▁两次	-3731
▁电台	-3732
▁修改	-3733
▁王子	-3734
▁稍	-3735
▁抢	-3736
▁拟	-3737
▁压力	-3738
▁学士	-3739
▁面对	-3740
民党	-3741
▁缩写	-3742
▁内蒙古	-3743
▁涉及	-3744
▁神经	-3745
▁更加	-3746
▁池	-3747
▁国道	-3748
▁邻近	-3749
阳市	-3750
▁第二次世界大战	-3751
one	-3752
▁氢	-3753
▁大将	-3754
▁八年	-3755
▁改称	-3756
▁一款	-3757
▁驾驶	-3758
▁书院	-3759
▁1941	-3760
▁179	-3761
▁那里	-3762
尼西亚	-3763
▁丧	-3764
▁挂	-3765
▁秘书长	-3766
▁很快	-3767
▁公众	-3768
▁受伤	-3769
▁免费	-3770
▁董事长	-3771
▁泛	-3772
▁1969	-3773
▁觉	-3774
▁七年	-3775
▁1957	-3776
小说	-3777
▁新竹	-3778
▁桃园	-3779
▁亚历山大	-3780
管理	-3781
▁硫	-3782
▁十七	-3783
▁1938	-3784
end	-3785
▁毗	-3786
▁万历	-3787
▁与其	-3788
▁种族	-3789
▁淘	-3790
▁集合	-3791
▁贵族	-3792
▁收入	-3793
▁社会主义	-3794
▁真正	-3795
▁炸	-3796
▁含有	-3797
▁真实	-3798
au	-3799
▁伊朗	-3800
▁克里斯	-3801
▁麦克	-3802
▁顿	-3803
▁满足	-3804
▁出场	-3805
▁泥	-3806
▁芬兰	-3807
▁家中	-3808
▁转换	-3809
▁HR	-3810
▁斜	-3811
▁排行	-3812
▁逮	-3813
▁参考	-3814
▁助理	-3815
▁气旋	-3816
qu	-3817
ert	-3818
▁市民	-3819
▁套	-3820
▁胸	-3821
▁赤纬	-3822
▁湘	-3823
▁冒	-3824
▁狭	-3825
▁荒	-3826
▁赤经	-3827
▁如何	-3828
▁以北	-3829
▁怪	-3830
AS	-3831
▁比利时	-3832
▁实验室	-3833
▁逢	-3834
▁41	-3835
▁出演	-3836
▁傅	-3837
▁重大	-3838
▁98	-3839
▁了解	-3840
▁台风	-3841
▁晚上	-3842
▁驱逐	-3843
▁首个	-3844
▁冈	-3845
▁缺乏	-3846
▁整体	-3847
▁昂	-3848
▁同名	-3849
▁秘鲁	-3850
▁展览	-3851
▁劝	-3852
▁监督	-3853
▁鳞	-3854
▁年初	-3855
▁降低	-3856
▁原住	-3857
▁为止	-3858
▁本地	-3859
▁如此	-3860
▁卡拉	-3861
科学院	-3862
▁投降	-3863
▁即位	-3864
▁达成	-3865
ly	-3866
▁赏	-3867
▁平面	-3868
▁持有	-3869
▁研发	-3870
▁凡	-3871
作品	-3872
▁籍	-3873
▁第九	-3874
▁上述	-3875
▁壁	-3876
▁方言	-3877
▁本届	-3878
里斯	-3879
▁彼得	-3880
▁1953	-3881
▁循	-3882
▁颇	-3883
▁1961	-3884
▁节度	-3885
▁义大利	-3886
▁符合	-3887
▁美洲	-3888
尔特	-3889
▁运用	-3890
▁游泳	-3891
▁玛丽	-3892
▁曰	-3893
▁例子	-3894
ER	-3895
▁提到	-3896
▁公转	-3897
▁状况	-3898
▁在内	-3899
▁衣	-3900
▁改善	-3901
▁1939	-3902
技术	-3903
▁胶	-3904
▁常用	-3905
▁1935	-3906
▁解放	-3907
▁国民党	-3908
▁贫	-3909
▁金牌	-3910
▁1967	-3911
▁建筑物	-3912
▁文献	-3913
▁生存	-3914
工业	-3915
▁相比	-3916
▁~	-3917
▁京都	-3918
76	-3919
▁柏林	-3920
▁海峡	-3921
▁司法	-3922
▁舰队	-3923
▁解散	-3924
▁不仅	-3925
▁演唱会	-3926
▁雌	-3927
1900	-3928
▁鬼	-3929
ric	-3930
▁棒球	-3931
▁寻找	-3932
▁姆	-3933
▁比例	-3934
▁赠	-3935
▁当局	-3936
▁衍	-3937
▁下列	-3938
35	-3939
▁促进	-3940
▁袭击	-3941
▁认识	-3942
ect	-3943
▁96	-3944
▁首播	-3945
45	-3946
▁中有	-3947
▁抵达	-3948
▁湖泊	-3949
▁增长	-3950
▁即使	-3951
▁停车	-3952
▁愿	-3953
▁原有	-3954
▁国民政府	-3955
▁今天	-3956
▁方便	-3957
te	-3958
▁圈	-3959
▁SAO	-3960
▁卓	-3961
▁陆续	-3962
▁1962	-3963
加拉	-3964
▁51	-3965
▁装备	-3966
▁北海道	-3967
▁津	-3968
▁河北省	-3969
▁两者	-3970
▁西侧	-3971
▁关闭	-3972
▁享年	-3973
▁现为	-3974
▁豆	-3975
▁星等	-3976
▁因素	-3977
▁形象	-3978
▁首歌	-3979
▁遵	-3980
▁波斯	-3981
▁骑士	-3982
▁寮	-3983
▁督	-3984
▁在位	-3985
▁海南	-3986
▁英尺	-3987
▁爱情	-3988
人民代表大会	-3989
▁得知	-3990
▁预计	-3991
▁卒	-3992
▁采取	-3993
▁伍	-3994
▁银纬	-3995
▁参谋	-3996
▁已有	-3997
▁丈夫	-3998
▁银经	-3999
▁日于	-4000
▁大众	-4001
▁感到	-4002
▁周期	-4003
▁起源	-4004
▁鲜	-4005
▁两侧	-4006
▁一间	-4007
▁出席	-4008
▁装甲	-4009
▁长子	-4010
▁诞	-4011
1900.0	-4012
▁1963	-4013
▁手机	-4014
▁房屋	-4015
▁公元前	-4016
▁空气	-4017
▁带有	-4018
▁1951	-4019
▁79	-4020
enter	-4021
▁法语	-4022
▁控股	-4023
▁差异	-4024
ann	-4025
▁附属	-4026
▁160	-4027
▁科学家	-4028
ft	-4029
▁恋	-4030
▁火箭	-4031
▁欲	-4032
▁具体	-4033
▁领导人	-4034
音乐	-4035
▁依据	-4036
时代	-4037
▁福建省	-4038
ens	-4039
▁原则	-4040
▁组建	-4041
▁联系	-4042
▁成长	-4043
▁加州	-4044
▁偶像	-4045
▁往往	-4046
▁站台	-4047
▁扩大	-4048
▁博士学位	-4049
▁瓜	-4050
▁亨利	-4051
▁蒸	-4052
▁岛上	-4053
▁消费	-4054
▁诏	-4055
▁予	-4056
▁熟	-4057
▁不满	-4058
▁答	-4059
▁逮捕	-4060
▁美元	-4061
▁雍	-4062
部长	-4063
▁一职	-4064
▁二战	-4065
▁伪	-4066
▁振	-4067
ate	-4068
▁86	-4069
中学	-4070
▁浪	-4071
▁苦	-4072
▁从此	-4073
▁勋章	-4074
▁昌	-4075
▁变得	-4076
▁相互	-4077
▁自治区	-4078
▁全国人民代表大会	-4079
▁篇	-4080
▁错误	-4081
▁生态	-4082
维奇	-4083
▁脂	-4084
▁三世	-4085
ep	-4086
▁薄	-4087
▁178	-4088
▁维多	-4089
▁通道	-4090
▁连载	-4091
▁朴	-4092
▁剧场	-4093
▁颁发	-4094
TAT	-4095
▁尝	-4096
▁弥	-4097
▁飓	-4098
▁现有	-4099
▁ー	-4100
span	-4101
73	-4102
▁加利福	-4103
▁态	-4104
▁飓风	-4105
▁演奏	-4106
▁触	-4107
▁饭	-4108
▁练	-4109
▁声音	-4110
▁校区	-4111
▁步兵	-4112
半岛	-4113
▁一份	-4114
▁产地	-4115
杉矶	-4116
▁碑	-4117
▁制定	-4118
▁下属	-4119
▁×	-4120
▁公爵	-4121
▁鼻	-4122
▁监察	-4123
▁爆炸	-4124
▁药物	-4125
▁风暴	-4126
▁1936	-4127
▁1944	-4128
▁讯	-4129
▁气象	-4130
▁相信	-4131
▁南非	-4132
ast	-4133
▁穆斯	-4134
▁签约	-4135
▁山西省	-4136
▁通讯	-4137
城市	-4138
▁文艺	-4139
▁拆除	-4140
▁河道	-4141
▁坦克	-4142
▁对抗	-4143
▁衰	-4144
▁发动机	-4145
▁领土	-4146
▁无线电视	-4147
▁气候	-4148
▁有机	-4149
ON	-4150
▁阅	-4151
拉克	-4152
▁所谓	-4153
ore	-4154
▁延长	-4155
▁墙	-4156
▁依然	-4157
▁农民	-4158
79	-4159
▁威胁	-4160
▁犯罪	-4161
▁内战	-4162
▁参选	-4163
▁平原	-4164
▁意见	-4165
▁价格	-4166
▁更新	-4167
▁出版社	-4168
▁撒	-4169
▁巡回	-4170
▁观点	-4171
▁东海	-4172
▁建制	-4173
▁签署	-4174
▁派遣	-4175
▁翰	-4176
▁莎	-4177
▁宁波	-4178
▁院士	-4179
▁落成	-4180
▁Te	-4181
▁推广	-4182
▁东侧	-4183
▁柴油	-4184
▁石油	-4185
ond	-4186
▁大规模	-4187
▁大师	-4188
▁一张	-4189
▁堪	-4190
▁随即	-4191
▁形状	-4192
▁升级	-4193
▁盟	-4194
▁适合	-4195
▁行政区划	-4196
▁裔	-4197
▁登场	-4198
▁主力	-4199
▁那么	-4200
会议	-4201
▁1927	-4202
▁湖南省	-4203
▁呈现	-4204
▁前后	-4205
生物	-4206
▁派出	-4207
▁一天	-4208
ai	-4209
▁恐怖	-4210
▁喜剧	-4211
▁蛛	-4212
▁闪	-4213
▁赶	-4214
▁加强	-4215
▁拼	-4216
食性	-4217
▁登陆	-4218
▁献	-4219
▁杰克	-4220
▁万美元	-4221
▁契	-4222
▁卫生	-4223
▁意识	-4224
▁候选人	-4225
▁谭	-4226
▁佛罗	-4227
▁警方	-4228
▁擅	-4229
▁美军	-4230
▁ン	-4231
▁战略	-4232
▁该校	-4233
▁扩展	-4234
▁莲	-4235
▁输入	-4236
▁源自	-4237
▁1933	-4238
▁互相	-4239
▁传媒	-4240
▁活跃	-4241
▁耶稣	-4242
▁兽	-4243
▁粒	-4244
▁1942	-4245
▁邮政	-4246
▁马里	-4247
▁所在地	-4248
▁咖	-4249
▁泽	-4250
▁跟随	-4251
▁五个	-4252
▁付	-4253
▁事故	-4254
▁兹	-4255
▁市中心	-4256
▁罢	-4257
▁辖区	-4258
▁ISTAT	-4259
▁珊	-4260
▁引入	-4261
▁完工	-4262
▁研究生	-4263
36	-4264
▁代表团	-4265
▁89	-4266
▁释放	-4267
▁留学	-4268
▁分支	-4269
▁转移	-4270
▁闻名	-4271
▁路口	-4272
▁那些	-4273
▁克罗	-4274
ey	-4275
▁科尔	-4276
▁学科	-4277
uc	-4278
▁打击	-4279
▁转会	-4280
▁长沙	-4281
▁菊	-4282
▁对方	-4283
▁是从	-4284
分之	-4285
▁亚军	-4286
形目	-4287
▁惟	-4288
阳县	-4289
▁本人	-4290
▁蒲	-4291
▁边缘	-4292
▁天文台	-4293
▁尹	-4294
▁江户	-4295
▁禅	-4296
▁洛杉矶	-4297
▁旅行	-4298
▁货运	-4299
▁咨	-4300
▁原住民	-4301
▁分离	-4302
▁执政	-4303
▁等级	-4304
▁交界	-4305
▁1943	-4306
▁收藏	-4307
▁吐	-4308
▁称呼	-4309
▁维多利亚	-4310
▁改建	-4311
▁波尔	-4312
▁试验	-4313
▁妇女	-4314
▁最为	-4315
▁冲突	-4316
▁该党	-4317
▁全国政协	-4318
ran	-4319
▁各国	-4320
▁签订	-4321
▁龟	-4322
利斯	-4323
▁三国	-4324
▁交换	-4325
▁工程师	-4326
▁记忆	-4327
▁钻	-4328
瓦尔	-4329
▁屈	-4330
▁1928	-4331
▁岳	-4332
▁幽	-4333
▁首席	-4334
▁蒙特	-4335
▁廖	-4336
▁援	-4337
▁塑	-4338
▁DV	-4339
▁化合物	-4340
▁通用	-4341
▁窗	-4342
▁尺	-4343
▁交汇	-4344
▁老师	-4345
设计	-4346
▁节度使	-4347
▁各个	-4348
▁医生	-4349
司令	-4350
▁下降	-4351
▁天然	-4352
▁清代	-4353
▁古老	-4354
▁道光	-4355
▁山区	-4356
作用	-4357
▁不详	-4358
▁水深	-4359
▁第一届	-4360
▁汗	-4361
▁写作	-4362
▁御史	-4363
▁服役	-4364
▁中期	-4365
▁资金	-4366
▁TV	-4367
▁偷	-4368
▁使用者	-4369
▁什么	-4370
▁旺	-4371
oy	-4372
AN	-4373
38	-4374
▁第二十	-4375
机构	-4376
▁青海	-4377
74	-4378
▁仿	-4379
▁NG	-4380
▁十月	-4381
▁此次	-4382
▁亲自	-4383
列车	-4384
▁慢	-4385
▁舞蹈	-4386
▁1931	-4387
▁翁	-4388
▁柱	-4389
▁靠近	-4390
▁独特	-4391
▁货物	-4392
▁1932	-4393
▁玻璃	-4394
▁奏	-4395
▁一首	-4396
▁Am	-4397
▁终点	-4398
▁大卫	-4399
▁自杀	-4400
▁特性	-4401
▁益	-4402
▁人民币	-4403
▁意外	-4404
▁扮演	-4405
▁嫁	-4406
研究	-4407
▁管理局	-4408
▁俄国	-4409
▁权利	-4410
▁台中市	-4411
▁诗人	-4412
ext	-4413
▁翌年	-4414
▁亿美元	-4415
▁俗称	-4416
▁起义	-4417
▁轴	-4418
▁年时	-4419
▁84	-4420
▁第一位	-4421
▁绿色	-4422
▁路段	-4423
▁姐	-4424
▁鄂	-4425
▁区内	-4426
▁废除	-4427
▁射击	-4428
文学	-4429
▁无人	-4430
▁程式	-4431
▁妹	-4432
▁足球联赛	-4433
ux	-4434
▁十九	-4435
▁邵	-4436
▁官至	-4437
▁北美	-4438
▁荆	-4439
▁难以	-4440
▁种类	-4441
▁织	-4442
▁论文	-4443
▁翰林	-4444
▁升格	-4445
▁商人	-4446
▁中国国	-4447
▁表明	-4448
▁传教	-4449
IN	-4450
▁狄	-4451
▁定居	-4452
▁撰写	-4453
▁收视	-4454
▁阿里	-4455
▁淘汰	-4456
▁com	-4457
▁公斤	-4458
部队	-4459
▁马拉	-4460
▁1934	-4461
▁齿	-4462
▁y	-4463
德华	-4464
▁术	-4465
▁两位	-4466
▁地带	-4467
▁脑	-4468
▁女演员	-4469
▁接收	-4470
tyle	-4471
▁电气	-4472
▁出售	-4473
▁分配	-4474
▁选出	-4475
▁各自	-4476
▁努力	-4477
▁克莱	-4478
▁资产	-4479
▁保罗	-4480
▁本科	-4481
▁颁奖	-4482
▁每天	-4483
▁宏	-4484
▁苏州	-4485
▁莱茵	-4486
▁典型	-4487
▁携	-4488
ire	-4489
▁特点	-4490
▁日期	-4491
此之	-4492
▁装饰	-4493
TV	-4494
▁司职	-4495
▁这部	-4496
▁氯	-4497
round	-4498
▁古典	-4499
▁员工	-4500
▁体育场	-4501
▁税	-4502
▁杀害	-4503
▁毛泽	-4504
▁病逝	-4505
▁中将	-4506
▁遇到	-4507
▁他于	-4508
▁自身	-4509
▁民主党	-4510
▁都督	-4511
▁频率	-4512
▁夹	-4513
▁一致	-4514
▁大夫	-4515
▁发源	-4516
▁录音	-4517
▁灾	-4518
▁逆	-4519
▁商品	-4520
▁座堂	-4521
▁最多	-4522
▁剪	-4523
▁的话	-4524
▁以西	-4525
▁四月	-4526
▁两名	-4527
之为	-4528
经理	-4529
▁做出	-4530
▁千米	-4531
▁育	-4532
▁供应	-4533
▁吏	-4534
▁抚	-4535
雷斯	-4536
▁二级	-4537
▁儒	-4538
▁以此	-4539
AM	-4540
▁闭	-4541
▁东亚	-4542
▁110	-4543
▁大部	-4544
▁区间	-4545
▁网球	-4546
▁1929	-4547
▁Sch	-4548
▁翼	-4549
▁兴趣	-4550
▁嘉义	-4551
▁style	-4552
▁Br	-4553
sh	-4554
▁良好	-4555
▁尝试	-4556
▁大赛	-4557
▁开幕	-4558
▁证据	-4559
▁1.5	-4560
34	-4561
▁末期	-4562
▁现存	-4563
▁You	-4564
▁强调	-4565
▁晋升	-4566
▁日语	-4567
▁坐落	-4568
▁书籍	-4569
▁称号	-4570
▁叔	-4571
▁消失	-4572
son	-4573
▁污	-4574
▁以东	-4575
▁防御	-4576
▁刀	-4577
▁链	-4578
▁授权	-4579
▁模拟	-4580
▁毛泽东	-4581
▁2019	-4582
ock	-4583
▁总站	-4584
▁卵	-4585
▁抓	-4586
▁粮	-4587
▁家人	-4588
▁票房	-4589
城区	-4590
▁Tr	-4591
▁脊	-4592
▁只要	-4593
▁700	-4594
▁矩	-4595
▁周年	-4596
▁苏丹	-4597
ox	-4598
城县	-4599
▁一词	-4600
▁布莱	-4601
▁声称	-4602
十年	-4603
▁虫	-4604
▁推荐	-4605
▁情报	-4606
歌手	-4607
▁婚姻	-4608
▁考试	-4609
▁讷	-4610
▁聚落	-4611
▁姊	-4612
▁回国	-4613
▁创始	-4614
ight	-4615
▁正面	-4616
▁陕西省	-4617
▁校园	-4618
ith	-4619
▁巴拉	-4620
▁本土	-4621
▁培养	-4622
▁公交	-4623
▁客户	-4624
▁肖	-4625
▁蓝色	-4626
▁般	-4627
▁沿岸	-4628
▁影像	-4629
▁会长	-4630
电台	-4631
▁敬	-4632
▁大字	-4633
▁省级	-4634
▁考古	-4635
▁而言	-4636
武帝	-4637
▁主体	-4638
▁进步	-4639
▁关键	-4640
▁拉斯	-4641
▁边境	-4642
▁艺术家	-4643
▁单元	-4644
▁证实	-4645
▁暨	-4646
▁爵士	-4647
▁Pr	-4648
▁自称	-4649
▁摇滚	-4650
are	-4651
▁葡萄牙语	-4652
▁晋级	-4653
IS	-4654
▁安徽省	-4655
▁另有	-4656
▁经由	-4657
▁殖民地	-4658
▁殿试	-4659
▁电话	-4660
▁登上	-4661
ix	-4662
▁浦	-4663
▁联络	-4664
▁画家	-4665
▁彰化	-4666
▁转向	-4667
72	-4668
▁岩石	-4669
▁高雄市	-4670
▁危险	-4671
▁常务	-4672
▁铺	-4673
▁成本	-4674
▁And	-4675
▁治所	-4676
▁职位	-4677
▁colspan	-4678
维尔	-4679
az	-4680
▁军区	-4681
▁回归	-4682
▁天下	-4683
▁同盟	-4684
▁伟	-4685
▁to	-4686
▁葬	-4687
▁销量	-4688
▁南昌	-4689
▁法案	-4690
▁用途	-4691
▁新界	-4692
▁158	-4693
▁联合会	-4694
▁建筑师	-4695
▁沿海	-4696
▁演化	-4697
▁72	-4698
39	-4699
▁本作	-4700
▁剧本	-4701
▁队长	-4702
ug	-4703
▁人生	-4704
▁涵	-4705
▁人大代表	-4706
ment	-4707
▁相当于	-4708
山县	-4709
▁这座	-4710
▁少将	-4711
▁运转	-4712
▁Ph	-4713
▁收费	-4714
▁黄色	-4715
iz	-4716
▁妈	-4717
▁行政院	-4718
▁甲级	-4719
▁多尔	-4720
▁鉴	-4721
▁圣经	-4722
▁上午	-4723
▁净	-4724
▁已于	-4725
▁催	-4726
▁NGC	-4727
▁逼	-4728
man	-4729
▁患者	-4730
64	-4731
ies	-4732
▁北侧	-4733
▁涂	-4734
▁维护	-4735
▁理想	-4736
▁130	-4737
▁苹	-4738
▁吸收	-4739
▁→	-4740
▁Ad	-4741
▁此地	-4742
▁0.1	-4743
▁港口	-4744
▁保守	-4745
▁检查	-4746
▁Cl	-4747
▁抗日战争	-4748
▁悲	-4749
▁外观	-4750
▁商场	-4751
▁align	-4752
▁梵	-4753
65	-4754
▁1912	-4755
▁键	-4756
▁染	-4757
▁back	-4758
▁地形	-4759
▁福州	-4760
▁下令	-4761
▁身分	-4762
▁年任	-4763
国家	-4764
▁中南	-4765
▁打算	-4766
▁印度尼西亚	-4767
▁旧址	-4768
▁军团	-4769
▁西亚	-4770
▁斩	-4771
▁立即	-4772
▁斯洛	-4773
▁足协	-4774
障碍	-4775
▁剧集	-4776
▁哈尔滨	-4777
▁Be	-4778
▁多项	-4779
▁性别	-4780
▁天府	-4781
▁输出	-4782
ook	-4783
▁演艺	-4784
▁1924	-4785
▁划分	-4786
▁詹姆斯	-4787
▁域	-4788
ier	-4789
▁告诉	-4790
▁视频	-4791
塞尔	-4792
▁切尔	-4793
▁140	-4794
▁神话	-4795
▁可见	-4796
▁册	-4797
▁添	-4798
▁贞	-4799
▁大家	-4800
▁最小	-4801
▁最低	-4802
▁种植	-4803
▁尸	-4804
▁忽	-4805
▁一只	-4806
▁埃尔	-4807
人民政府	-4808
▁第十一届	-4809
ala	-4810
▁感染	-4811
▁第十二	-4812
▁肥	-4813
▁影视	-4814
▁反映	-4815
▁餐厅	-4816
IC	-4817
▁案件	-4818
▁循环	-4819
▁档案	-4820
ground	-4821
68	-4822
▁05	-4823
▁鲈形目	-4824
▁*	-4825
ach	-4826
萨斯州	-4827
▁模特	-4828
▁大幅	-4829
▁居委会	-4830
▁总会	-4831
▁连任	-4832
▁穆斯林	-4833
▁’	-4834
▁收集	-4835
▁太守	-4836
ath	-4837
▁170	-4838
▁94	-4839
▁市政	-4840
▁座标	-4841
▁安东	-4842
▁首位	-4843
▁轰炸	-4844
▁近代	-4845
▁首张	-4846
▁呎	-4847
▁南侧	-4848
ton	-4849
▁领地	-4850
▁Par	-4851
▁hant	-4852
▁摆	-4853
▁数位	-4854
▁大街	-4855
▁时段	-4856
语言	-4857
▁强度	-4858
▁湖北省	-4859
▁公安	-4860
▁协调	-4861
▁货币	-4862
▁巴基	-4863
▁Joh	-4864
▁来往	-4865
▁DVD	-4866
▁肌	-4867
▁地名	-4868
▁1925	-4869
▁聘	-4870
逻辑	-4871
▁山坡	-4872
二年	-4873
▁175	-4874
▁Lin	-4875
AR	-4876
▁捷克	-4877
▁明确	-4878
ust	-4879
▁每日	-4880
▁资本	-4881
▁鸟类	-4882
▁停靠	-4883
71	-4884
▁钢琴	-4885
▁琴	-4886
▁新北	-4887
▁望远	-4888
▁变种	-4889
▁设计师	-4890
▁咖啡	-4891
▁挖	-4892
▁识字	-4893
▁称之为	-4894
▁观光	-4895
▁Inter	-4896
▁观赏	-4897
32	-4898
▁Col	-4899
▁满洲	-4900
▁步枪	-4901
▁狂	-4902
少年	-4903
▁教宗	-4904
▁开展	-4905
▁更为	-4906
▁三月	-4907
▁衡	-4908
▁原先	-4909
▁相连	-4910
▁干部	-4911
▁敌人	-4912
▁球会	-4913
▁选秀	-4914
▁长安	-4915
▁贩	-4916
▁叙利亚	-4917
▁共产	-4918
▁对此	-4919
▁本名	-4920
▁格拉	-4921
▁专用	-4922
▁局长	-4923
▁苹果	-4924
▁鸭	-4925
遗产	-4926
▁奥斯卡	-4927
ory	-4928
▁积分	-4929
冠军	-4930
▁保加	-4931
▁BD	-4932
▁烈	-4933
▁经济学	-4934
▁争取	-4935
▁奴	-4936
▁当天	-4937
▁62	-4938
▁知府	-4939
ina	-4940
▁罗伯特	-4941
▁已知	-4942
▁盗	-4943
▁臀	-4944
▁background	-4945
▁战士	-4946
▁蜀	-4947
▁望远镜	-4948
▁on	-4949
▁构造	-4950
▁棘	-4951
per	-4952
▁陨坑	-4953
▁禾	-4954
▁高架	-4955
▁赞助	-4956
▁披	-4957
▁背鳍	-4958
▁学位	-4959
▁琼	-4960
▁之战	-4961
▁流域面积	-4962
▁拳	-4963
▁常常	-4964
▁樱	-4965
▁修复	-4966
足球队	-4967
▁物体	-4968
▁抑	-4969
▁修正	-4970
▁1926	-4971
▁加利福尼亚州	-4972
▁鳄	-4973
▁室内	-4974
▁上升	-4975
▁恐龙	-4976
▁作曲家	-4977
▁事情	-4978
▁互联	-4979
▁天文学家	-4980
▁称作	-4981
▁成就	-4982
▁民籍	-4983
▁国家足球队	-4984
▁圣母	-4985
▁留在	-4986
▁美丽	-4987
▁达尔	-4988
▁两条	-4989
▁准决赛	-4990
▁突破	-4991
▁の	-4992
▁八月	-4993
▁赋	-4994
▁爱德华	-4995
▁大气	-4996
▁陵	-4997
▁内地	-4998
▁相邻	-4999
▁图像	-5000
▁钦	-5001
毕业	-5002
▁南海	-5003
▁汉字	-5004
▁61	-5005
▁入口	-5006
▁营业	-5007
69	-5008
▁增强	-5009
▁‧	-5010
▁id	-5011
▁砖	-5012
▁身上	-5013
▁形目	-5014
ber	-5015
▁令人	-5016
▁制成	-5017
▁戒	-5018
▁当代	-5019
▁分成	-5020
斯加	-5021
▁歌词	-5022
▁流经	-5023
▁出入口	-5024
▁厦	-5025
ure	-5026
▁强大	-5027
▁165	-5028
▁困难	-5029
▁以为	-5030
▁突出	-5031
▁包围	-5032
▁通往	-5033
▁弯	-5034
▁cn	-5035
▁开办	-5036
▁春秋	-5037
▁狮子	-5038
▁1922	-5039
▁陪	-5040
▁作业	-5041
广播	-5042
▁大连	-5043
▁适用	-5044
▁游客	-5045
▁监狱	-5046
政治	-5047
▁本片	-5048
▁现实	-5049
▁雇	-5050
▁她们	-5051
▁江南	-5052
▁坚持	-5053
▁纳粹	-5054
33	-5055
iss	-5056
▁歧义	-5057
▁Re	-5058
活动	-5059
▁区议会	-5060
▁丹尼	-5061
▁巴基斯坦	-5062
▁扫	-5063
▁正确	-5064
aw	-5065
▁拖	-5066
▁防止	-5067
▁纹	-5068
▁Sc	-5069
热带	-5070
▁注入	-5071
褐色	-5072
▁敏	-5073
TC	-5074
▁指示	-5075
▁格式	-5076
▁Car	-5077
▁这项	-5078
AC	-5079
▁七月	-5080
▁专区	-5081
▁通信	-5082
▁事实上	-5083
▁设在	-5084
▁1918	-5085
▁四大	-5086
ame	-5087
▁杰出	-5088
▁甜	-5089
▁一点	-5090
▁郊	-5091
▁厝	-5092
▁保加利亚	-5093
▁海上	-5094
▁辩	-5095
▁三种	-5096
▁疑	-5097
▁菩	-5098
▁机制	-5099
▁竞赛	-5100
▁该片	-5101
协会	-5102
▁布雷	-5103
▁胜出	-5104
▁德尔	-5105
▁颗	-5106
▁魔法	-5107
▁邱	-5108
典礼	-5109
▁修道	-5110
▁创新	-5111
▁编码	-5112
▁保险	-5113
▁拱	-5114
萨克	-5115
▁库尔	-5116
ial	-5117
▁捷运	-5118
▁清华	-5119
▁磷	-5120
▁稀	-5121
加哥	-5122
▁下来	-5123
▁认定	-5124
▁这时	-5125
▁十二年	-5126
▁页	-5127
▁气体	-5128
▁扁	-5129
▁战车	-5130
▁病毒	-5131
▁启动	-5132
▁证券	-5133
▁center	-5134
▁奥尔	-5135
▁二月	-5136
▁一对	-5137
▁祐	-5138
▁77	-5139
▁阻止	-5140
▁台南市	-5141
▁假设	-5142
经济	-5143
▁分裂	-5144
▁性能	-5145
▁响	-5146
▁整合	-5147
▁大同	-5148
▁文明	-5149
ational	-5150
▁无论	-5151
▁狼	-5152
▁排列	-5153
▁1913	-5154
▁泡	-5155
▁标本	-5156
▁途经	-5157
▁桥梁	-5158
▁致力	-5159
▁萨克	-5160
▁优势	-5161
▁250	-5162
▁青少年	-5163
▁绘画	-5164
▁认证	-5165
▁政治家	-5166
▁中国国民党	-5167
▁陆地	-5168
▁报纸	-5169
▁职棒	-5170
▁瓦尔	-5171
▁狗	-5172
▁为此	-5173
▁效应	-5174
▁女主角	-5175
▁犹太人	-5176
▁欣	-5177
▁蓬	-5178
▁罕	-5179
▁全线	-5180
▁最好	-5181
▁吨	-5182
▁识字率	-5183
▁定理	-5184
▁寒	-5185
▁幻	-5186
▁敦	-5187
▁损失	-5188
▁毗邻	-5189
▁庶	-5190
▁总裁	-5191
▁六月	-5192
▁引进	-5193
▁汉语	-5194
▁济南	-5195
▁天津市	-5196
▁砂	-5197
▁缘	-5198
▁成年	-5199
▁主题曲	-5200
▁趋	-5201
▁筑	-5202
▁共和	-5203
▁综艺	-5204
▁互联网	-5205
下来	-5206
▁1919	-5207
▁日后	-5208
▁沈阳	-5209
▁离子	-5210
▁顺利	-5211
▁火车站	-5212
▁株	-5213
▁主管	-5214
▁事务所	-5215
77	-5216
▁札	-5217
▁不到	-5218
▁宰	-5219
▁芝加哥	-5220
▁利益	-5221
▁布朗	-5222
▁规范	-5223
▁角度	-5224
▁东南亚	-5225
▁臣	-5226
▁105	-5227
▁地域	-5228
▁淡水鱼	-5229
▁164	-5230
▁主打	-5231
▁新建	-5232
▁教育部	-5233
▁伙	-5234
▁明代	-5235
▁贴	-5236
▁二次	-5237
▁序列	-5238
▁战国	-5239
▁丛	-5240
▁三人	-5241
▁巡抚	-5242
▁死后	-5243
▁指数	-5244
▁歌唱	-5245
▁九月	-5246
▁襄	-5247
▁广州市	-5248
▁紧急	-5249
▁贯	-5250
▁巫	-5251
▁责任	-5252
▁逻辑	-5253
▁棕	-5254
▁印刷	-5255
▁出发	-5256
▁埋	-5257
▁磨	-5258
▁单独	-5259
▁措	-5260
公园	-5261
细胞	-5262
▁粒子	-5263
▁纤	-5264
▁歌剧	-5265
▁初年	-5266
▁珊瑚	-5267
▁复兴	-5268
▁咨询	-5269
▁壮	-5270
▁大选	-5271
▁哥哥	-5272
▁赫尔	-5273
▁祝	-5274
▁途中	-5275
▁同性	-5276
▁1923	-5277
pe	-5278
教授	-5279
机车	-5280
▁评为	-5281
▁柴油机	-5282
▁观音	-5283
▁量子	-5284
▁斯塔	-5285
▁收到	-5286
▁AP	-5287
▁洛阳	-5288
▁诞生	-5289
▁严格	-5290
▁De	-5291
▁充满	-5292
▁转变	-5293
▁攻打	-5294
▁辞职	-5295
▁弱	-5296
ern	-5297
▁一半	-5298
▁入球	-5299
▁培训	-5300
▁另一方面	-5301
▁神秘	-5302
▁沙田	-5303
▁遣	-5304
ogle	-5305
▁旋转	-5306
尔夫	-5307
▁子女	-5308
▁每周	-5309
一年	-5310
▁代替	-5311
▁如今	-5312
▁行业	-5313
▁勃	-5314
▁信徒	-5315
▁怀疑	-5316
▁采访	-5317
▁鼓励	-5318
▁意味	-5319
▁受欢迎	-5320
▁商店	-5321
tt	-5322
▁察	-5323
▁扩建	-5324
▁正月	-5325
▁私立	-5326
▁至于	-5327
▁彻	-5328
▁植	-5329
▁特拉	-5330
▁诉	-5331
▁男女	-5332
▁纷	-5333
▁09	-5334
▁暂时	-5335
▁味	-5336
日报	-5337
▁外围	-5338
自治	-5339
▁先进	-5340
▁基隆	-5341
▁Play	-5342
▁谁	-5343
▁一套	-5344
▁这场	-5345
▁滨海	-5346
▁替代	-5347
▁架构	-5348
▁坪	-5349
斯顿	-5350
▁中西	-5351
▁智利	-5352
▁甲级联赛	-5353
▁粤语	-5354
▁1914	-5355
▁区别	-5356
▁155	-5357
▁堆	-5358
▁念	-5359
▁1909	-5360
▁情形	-5361
军区	-5362
▁辐射	-5363
▁理解	-5364
▁可是	-5365
ool	-5366
▁首尔	-5367
▁脉	-5368
里达	-5369
▁Ap	-5370
▁平衡	-5371
ary	-5372
▁配置	-5373
▁改进	-5374
▁大部份	-5375
▁大将军	-5376
▁相应	-5377
▁弗朗	-5378
▁画面	-5379
▁裴	-5380
▁路易斯	-5381
▁塞尔维亚	-5382
▁导弹	-5383
▁Ex	-5384
▁一人	-5385
▁庆祝	-5386
▁影响力	-5387
66	-5388
▁い	-5389
▁text	-5390
▁芒	-5391
▁嘉庆	-5392
▁浏	-5393
▁叫做	-5394
▁伸	-5395
▁提及	-5396
▁1921	-5397
31	-5398
▁重量	-5399
▁十一年	-5400
▁妹妹	-5401
▁对称	-5402
▁款	-5403
▁常委	-5404
▁宠	-5405
▁风险	-5406
▁159	-5407
▁工作室	-5408
结构	-5409
▁任期	-5410
▁亚科	-5411
▁依照	-5412
▁总共	-5413
▁168	-5414
▁弗里	-5415
▁а	-5416
▁一处	-5417
▁萨拉	-5418
▁琉球	-5419
▁推进	-5420
▁1911	-5421
▁肉食性	-5422
▁单一	-5423
▁幕府	-5424
▁席位	-5425
OM	-5426
▁上面	-5427
▁行驶	-5428
▁首任	-5429
▁伽	-5430
乐团	-5431
▁北面	-5432
▁苯	-5433
▁上游	-5434
▁党组	-5435
▁明星	-5436
▁α	-5437
▁家乡	-5438
选为	-5439
ES	-5440
▁Ma	-5441
▁保证	-5442
37	-5443
amp	-5444
▁km	-5445
▁米尔	-5446
▁2.5	-5447
ish	-5448
▁布政	-5449
那州	-5450
▁格雷	-5451
▁云南省	-5452
▁研究院	-5453
▁该站	-5454
▁登记	-5455
▁st	-5456
▁成人	-5457
▁重庆市	-5458
▁共计	-5459
▁剧院	-5460
▁痛	-5461
▁矮	-5462
▁决议	-5463
▁约瑟	-5464
▁同学	-5465
▁Google	-5466
▁凉	-5467
▁史密	-5468
▁国军	-5469
▁抗议	-5470
▁战斗机	-5471
▁工商	-5472
▁审查	-5473
▁名人	-5474
▁流传	-5475
ung	-5476
▁女王	-5477
▁$	-5478
▁日常	-5479
▁吏部	-5480
▁翰林院	-5481
▁衍生	-5482
▁辅助	-5483
▁经纪	-5484
▁越来	-5485
▁北魏	-5486
▁起初	-5487
▁长大	-5488
▁映	-5489
ick	-5490
ld	-5491
▁67	-5492
▁更是	-5493
▁John	-5494
▁发音	-5495
▁太原	-5496
▁诊	-5497
▁很少	-5498
▁一共	-5499
▁公开赛	-5500
ide	-5501
▁几何	-5502
▁清水	-5503
▁奔	-5504
▁研制	-5505
▁第一部	-5506
▁海水	-5507
▁像是	-5508
▁越来越	-5509
▁橄	-5510
▁本剧	-5511
▁其父	-5512
▁女孩	-5513
▁欧盟	-5514
▁全世界	-5515
▁被选为	-5516
▁中国科学院	-5517
▁六个	-5518
▁硕士学位	-5519
▁猛	-5520
▁司令部	-5521
▁奠	-5522
▁行走	-5523
▁闸	-5524
age	-5525
▁感觉	-5526
▁耐	-5527
泊尔	-5528
▁山地	-5529
▁资助	-5530
▁叛乱	-5531
▁有着	-5532
▁吹	-5533
▁总经理	-5534
▁车队	-5535
▁未知	-5536
▁AK	-5537
▁腐	-5538
▁用以	-5539
▁布里	-5540
▁1917	-5541
▁宣称	-5542
▁MV	-5543
▁电视节目	-5544
▁打破	-5545
▁评估	-5546
▁公顷	-5547
▁史上	-5548
▁脱离	-5549
▁自此	-5550
EC	-5551
▁矩阵	-5552
▁回应	-5553
▁详细	-5554
▁出道	-5555
▁孟加拉	-5556
▁型号	-5557
▁尼泊尔	-5558
▁就读于	-5559
▁合唱	-5560
ilver	-5561
▁肺	-5562
▁东汉	-5563
▁大埔	-5564
▁原创	-5565
▁IC	-5566
▁足够	-5567
▁加以	-5568
▁视觉	-5569
建筑	-5570
▁元朝	-5571
▁沼	-5572
▁贪	-5573
▁下载	-5574
▁心率	-5575
▁市委	-5576
▁抵抗	-5577
▁之上	-5578
▁级别	-5579
▁经理	-5580
▁邪	-5581
▁客家	-5582
▁AT	-5583
▁十四	-5584
▁该庄	-5585
▁委任	-5586
▁监制	-5587
▁本线	-5588
▁能源	-5589
▁伊斯兰教	-5590
▁合法	-5591
▁连续剧	-5592
▁犬	-5593
ork	-5594
▁本书	-5595
▁碰	-5596
▁区分	-5597
▁症状	-5598
▁迪士	-5599
▁物理学	-5600
▁迪士尼	-5601
▁北京大学	-5602
▁最新	-5603
▁哪	-5604
▁新西兰	-5605
▁屠	-5606
▁方程式	-5607
▁赌	-5608
▁乱	-5609
▁鲷	-5610
▁里面	-5611
▁党员	-5612
▁加速	-5613
▁拨	-5614
▁十三年	-5615
▁08	-5616
oft	-5617
▁格林	-5618
▁主流	-5619
▁冒险	-5620
▁cod	-5621
▁高山	-5622
▁伊拉克	-5623
▁此事	-5624
▁开工	-5625
▁短暂	-5626
▁伊利	-5627
▁委托	-5628
▁橄榄	-5629
▁天气	-5630
▁探险队	-5631
▁弟子	-5632
▁革	-5633
▁王位	-5634
▁现已	-5635
▁移居	-5636
▁荣获	-5637
▁吉他	-5638
▁昆虫	-5639
▁即将	-5640
▁Ge	-5641
▁色彩	-5642
▁头部	-5643
▁放在	-5644
▁乌拉	-5645
▁最高点	-5646
▁国语	-5647
▁寄生	-5648
▁建国	-5649
▁施工	-5650
川县	-5651
▁首度	-5652
▁希尔	-5653
▁喜爱	-5654
▁廉	-5655
▁祈	-5656
▁笑	-5657
▁该区	-5658
▁氧	-5659
▁凤凰	-5660
▁检察	-5661
▁color	-5662
▁涵盖	-5663
▁一生	-5664
▁耗	-5665
▁心脏	-5666
▁质疑	-5667
▁议席	-5668
▁查理	-5669
▁首领	-5670
▁城墙	-5671
▁设于	-5672
pt	-5673
▁欢	-5674
山市	-5675
部门	-5676
▁‘	-5677
▁吾	-5678
▁题材	-5679
局长	-5680
▁吞	-5681
▁录影	-5682
▁竞选	-5683
61	-5684
▁形容	-5685
▁微软	-5686
▁洲	-5687
▁年于	-5688
▁厦门	-5689
▁肾	-5690
▁145	-5691
▁田径	-5692
斯塔	-5693
▁十二月	-5694
▁起点	-5695
▁民政	-5696
▁消防	-5697
▁碎	-5698
▁据说	-5699
▁举人	-5700
▁弗拉	-5701
▁讨伐	-5702
▁奖金	-5703
▁海底	-5704
▁读书	-5705
▁想要	-5706
▁125	-5707
▁坡	-5708
▁陷入	-5709
▁态度	-5710
▁大都	-5711
▁编写	-5712
▁大理	-5713
▁骑兵	-5714
▁抛	-5715
三年	-5716
巴马	-5717
▁婆	-5718
▁柬	-5719
▁向量	-5720
▁极大	-5721
▁年前	-5722
▁江西省	-5723
不同	-5724
▁后裔	-5725
▁条例	-5726
▁抱	-5727
▁保障	-5728
▁Con	-5729
▁殷	-5730
▁原型	-5731
格尔	-5732
民族	-5733
▁融合	-5734
▁发挥	-5735
▁亚热带	-5736
▁供奉	-5737
▁蛋白质	-5738
▁军官	-5739
运会	-5740
科夫	-5741
▁牵引	-5742
▁忍	-5743
▁人次	-5744
▁无限	-5745
▁探测	-5746
▁分校	-5747
▁蜥	-5748
▁修道院	-5749
▁Ed	-5750
▁自我	-5751
▁见到	-5752
▁阿富	-5753
▁航空公司	-5754
▁夸	-5755
▁前锋	-5756
资源	-5757
▁图案	-5758
▁适应	-5759
▁第二个	-5760
▁天使	-5761
▁竟	-5762
艺术	-5763
ost	-5764
ass	-5765
▁医学院	-5766
▁盆	-5767
▁南面	-5768
▁二十年	-5769
▁容纳	-5770
▁裂	-5771
▁71	-5772
▁形态	-5773
ros	-5774
▁地上	-5775
▁祠	-5776
▁谱	-5777
▁描写	-5778
▁建筑面积	-5779
▁二百	-5780
EN	-5781
▁新人	-5782
▁永久	-5783
医院	-5784
▁危机	-5785
▁0.0	-5786
▁人权	-5787
49	-5788
风暴	-5789
▁十大	-5790
▁辽宁省	-5791
▁清真	-5792
▁场所	-5793
▁本来	-5794
▁th	-5795
▁上方	-5796
▁碧	-5797
▁镶	-5798
▁不要	-5799
▁万平	-5800
▁垂直	-5801
▁源于	-5802
▁租界	-5803
mm	-5804
▁阿富汗	-5805
▁娜	-5806
▁显著	-5807
▁游击	-5808
▁115	-5809
▁录制	-5810
▁尼古	-5811
▁镜头	-5812
▁擅长	-5813
▁鼠	-5814
▁支付	-5815
▁北美洲	-5816
▁购物	-5817
▁New	-5818
▁裁判	-5819
▁连结	-5820
▁次列车	-5821
▁塔尔	-5822
▁大公	-5823
▁平安	-5824
▁好友	-5825
▁城区	-5826
▁PC	-5827
▁昆明	-5828
▁制片	-5829
▁值得	-5830
▁大奖赛	-5831
▁许可	-5832
▁吻	-5833
▁倾向	-5834
yn	-5835
▁矛	-5836
▁支线	-5837
▁即可	-5838
▁商务	-5839
▁氨	-5840
▁庭	-5841
▁芳	-5842
▁此处	-5843
▁体育馆	-5844
▁仅次	-5845
▁尼克	-5846
▁慈善	-5847
▁长轴	-5848
分子	-5849
▁81	-5850
米亚	-5851
▁阅读	-5852
▁附加	-5853
▁慕容	-5854
▁百万	-5855
▁短期	-5856
埃尔	-5857
▁条目	-5858
▁共产主义	-5859
▁比尔	-5860
▁面临	-5861
▁分解	-5862
▁练习	-5863
▁被捕	-5864
▁顺序	-5865
62	-5866
ube	-5867
▁中式	-5868
▁欢迎	-5869
▁祭祀	-5870
▁漫画家	-5871
▁佛罗里达	-5872
▁Bl	-5873
▁股东	-5874
▁Mac	-5875
▁出自	-5876
▁策略	-5877
▁主人	-5878
▁同步	-5879
▁姓氏	-5880
▁铸	-5881
▁成分	-5882
▁确保	-5883
▁通知	-5884
▁传奇	-5885
▁侍郎	-5886
▁3000	-5887
▁北宋	-5888
▁声优	-5889
▁航线	-5890
▁风景	-5891
▁入围	-5892
▁Me	-5893
▁顺治	-5894
▁台湾省	-5895
▁米兰	-5896
▁割	-5897
▁加工	-5898
▁裸	-5899
▁船只	-5900
▁如同	-5901
▁第十三	-5902
▁每次	-5903
▁高达	-5904
▁亭	-5905
▁品种	-5906
▁递	-5907
▁北平	-5908
▁十四年	-5909
▁一组	-5910
马斯	-5911
▁新城	-5912
▁征服	-5913
▁鱼科	-5914
▁始于	-5915
集团	-5916
▁考入	-5917
▁1900	-5918
67	-5919
▁1901	-5920
▁创始人	-5921
▁删	-5922
▁审判	-5923
▁皮肤	-5924
▁地处	-5925
▁军人	-5926
▁十五年	-5927
▁Co	-5928
▁He	-5929
▁101	-5930
▁诺贝尔	-5931
▁非法	-5932
▁稻	-5933
社会	-5934
▁长春	-5935
▁应用程	-5936
▁场景	-5937
▁丞	-5938
特兰	-5939
▁82	-5940
▁保安	-5941
▁聚集	-5942
▁手术	-5943
▁108	-5944
▁线性	-5945
▁专科	-5946
▁ん	-5947
▁逾	-5948
▁中场	-5949
▁模特儿	-5950
▁参数	-5951
▁获奖	-5952
▁女人	-5953
land	-5954
▁La	-5955
▁回忆	-5956
▁重视	-5957
▁滕	-5958
▁德拉	-5959
▁Coun	-5960
▁法官	-5961
▁划归	-5962
▁手枪	-5963
ivers	-5964
▁法兰西	-5965
▁并止	-5966
▁妖	-5967
▁姬	-5968
▁一层	-5969
▁人为	-5970
▁场地	-5971
▁书写	-5972
▁扩张	-5973
▁火星	-5974
▁直升	-5975
伐克	-5976
▁电影节	-5977
▁茨	-5978
▁战场	-5979
▁仅次于	-5980
士顿	-5981
▁储存	-5982
▁温泉	-5983
▁停车场	-5984
▁算法	-5985
▁中书	-5986
▁夫卡	-5987
▁密度	-5988
▁驱动	-5989
ace	-5990
▁觉得	-5991
六年	-5992
▁菌	-5993
▁接壤	-5994
▁爬	-5995
▁猪笼	-5996
▁重返	-5997
▁涌	-5998
▁平定	-5999
▁曾于	-6000
▁灭绝	-6001
▁富士	-6002
▁铃	-6003
▁诱	-6004
▁迷你	-6005
▁马丁	-6006
▁成化	-6007
▁悉	-6008
▁平行	-6009
泽尔	-6010
▁下方	-6011
▁读者	-6012
▁惯	-6013
▁看见	-6014
▁la	-6015
▁相反	-6016
▁取自	-6017
▁亚美	-6018
▁夏威	-6019
▁费用	-6020
▁葵	-6021
▁轨道交通	-6022
▁沪	-6023
▁名誉	-6024
▁环球	-6025
▁猪笼草	-6026
▁silver	-6027
里克	-6028
▁两岸	-6029
▁主动	-6030
▁末年	-6031
▁伯爵	-6032
▁惨	-6033
orm	-6034
▁中世纪	-6035
▁未有	-6036
ae	-6037
▁屯门	-6038
反应	-6039
▁头衔	-6040
▁智慧	-6041
▁见于	-6042
▁人才	-6043
▁成熟	-6044
▁格鲁	-6045
▁晚期	-6046
▁蟹	-6047
▁总监	-6048
▁猜	-6049
▁公式	-6050
▁交易所	-6051
地亚	-6052
▁纪录片	-6053
▁早上	-6054
▁遭遇	-6055
▁雍正	-6056
▁占据	-6057
▁最长	-6058
▁codice	-6059
▁任内	-6060
▁Or	-6061
▁卡斯蒂	-6062
▁鳉	-6063
▁具备	-6064
▁转为	-6065
▁高原	-6066
▁新北市	-6067
▁昔	-6068
▁茅	-6069
▁嘴	-6070
▁哺	-6071
▁Gr	-6072
▁实力	-6073
▁夏威夷	-6074
▁第三十	-6075
▁中央军	-6076
▁苔	-6077
▁皇太	-6078
95	-6079
▁娶	-6080
东县	-6081
▁维也	-6082
科技	-6083
▁维也纳	-6084
▁随机	-6085
▁高校	-6086
▁摩尔	-6087
▁柬埔	-6088
▁违反	-6089
▁UA	-6090
▁祖先	-6091
▁吉尔	-6092
▁巧	-6093
▁腓	-6094
▁国旗	-6095
▁睡	-6096
▁习惯	-6097
▁Mus	-6098
▁柬埔寨	-6099
▁可用	-6100
▁1910	-6101
▁为食	-6102
ile	-6103
▁芦	-6104
▁El	-6105
▁流浪	-6106
▁三位	-6107
▁接著	-6108
▁镇压	-6109
▁暴力	-6110
▁第一名	-6111
▁或称	-6112
▁流动	-6113
▁左翼	-6114
▁等于	-6115
▁直辖	-6116
▁喇	-6117
▁书法	-6118
▁术语	-6119
▁岛式	-6120
▁万年	-6121
▁传输	-6122
▁旨	-6123
▁斋	-6124
▁中东	-6125
▁寺院	-6126
▁当日	-6127
▁斯托	-6128
化学	-6129
▁其子	-6130
▁碱	-6131
▁扭	-6132
▁财务	-6133
▁戊	-6134
▁子公司	-6135
▁三次	-6136
▁圆形	-6137
尼黑	-6138
▁业余	-6139
▁韦尔	-6140
▁屡	-6141
▁le	-6142
rom	-6143
▁尼斯	-6144
▁搜索	-6145
63	-6146
▁以便	-6147
▁相继	-6148
▁迁至	-6149
文化	-6150
▁工艺	-6151
▁网上	-6152
▁交响	-6153
▁十一月	-6154
▁氟	-6155
▁卫视	-6156
▁手段	-6157
▁法兰克	-6158
▁廿	-6159
▁艘	-6160
▁83	-6161
▁为名	-6162
▁繁殖	-6163
▁0.2	-6164
▁己	-6165
▁浏览	-6166
▁精灵	-6167
▁声明	-6168
▁债	-6169
各地	-6170
▁认可	-6171
大革命	-6172
▁解放军	-6173
▁文化大革命	-6174
▁理由	-6175
▁主教练	-6176
▁宜兰	-6177
▁救援	-6178
▁股权	-6179
▁甘肃省	-6180
▁茂	-6181
▁绍兴	-6182
▁正是	-6183
安县	-6184
纳德	-6185
▁奎	-6186
▁争夺	-6187
▁全新	-6188
▁延续	-6189
▁穿过	-6190
▁黄河	-6191
▁剧中	-6192
▁有名	-6193
▁0.5	-6194
▁凶	-6195
▁熔	-6196
▁本鱼	-6197
▁县级	-6198
▁发掘	-6199
▁巴伐	-6200
▁班次	-6201
▁队友	-6202
▁128	-6203
▁引用	-6204
St	-6205
▁重复	-6206
生活	-6207
▁电车	-6208
42	-6209
▁下面	-6210
▁1903	-6211
▁巴伐利亚	-6212
▁群众	-6213
▁世界各地	-6214
▁原理	-6215
▁慕尼黑	-6216
▁翡	-6217
▁一群	-6218
▁电动	-6219
▁财产	-6220
▁个体	-6221
族自治区	-6222
▁农场	-6223
▁遭受	-6224
▁光学	-6225
▁恭	-6226
▁甲组	-6227
▁女神	-6228
▁唐代	-6229
▁亚利	-6230
▁日文	-6231
▁中原	-6232
▁首相	-6233
▁塘	-6234
▁仲	-6235
▁遗传	-6236
▁验	-6237
港元	-6238
▁六十	-6239
▁额外	-6240
▁卧	-6241
机关	-6242
▁一书	-6243
old	-6244
▁900	-6245
▁处理器	-6246
▁IP	-6247
▁о	-6248
▁布兰	-6249
▁该剧	-6250
▁布政使	-6251
▁j	-6252
▁脸	-6253
作家	-6254
▁指令	-6255
AT	-6256
▁耕	-6257
内亚	-6258
▁定期	-6259
▁数百	-6260
▁神社	-6261
▁服装	-6262
▁帐	-6263
▁山顶	-6264
▁口径	-6265
▁守护	-6266
▁俘	-6267
▁机动	-6268
OR	-6269
▁虾	-6270
▁多伦	-6271
▁135	-6272
▁竣	-6273
▁航班	-6274
▁研究员	-6275
▁掌握	-6276
▁面向	-6277
▁两座	-6278
▁霸	-6279
▁数目	-6280
▁古巴	-6281
▁调任	-6282
▁史密斯	-6283
▁句	-6284
▁CP	-6285
▁似乎	-6286
▁摧	-6287
▁负责人	-6288
ction	-6289
吾尔	-6290
▁う	-6291
▁纺	-6292
▁贤	-6293
▁上帝	-6294
▁Ser	-6295
▁担当	-6296
▁CH	-6297
▁打败	-6298
▁网页	-6299
▁翡翠	-6300
▁七十	-6301
族自治	-6302
▁主导	-6303
▁菲利	-6304
▁夫妇	-6305
ite	-6306
▁噶	-6307
山脉	-6308
▁曹操	-6309
▁叙述	-6310
▁运算	-6311
▁AC	-6312
▁一块	-6313
▁转乘	-6314
▁嗣	-6315
▁乡村	-6316
▁欧元	-6317
▁添加	-6318
▁直升机	-6319
▁后于	-6320
▁岸	-6321
▁政务	-6322
▁作词	-6323
▁勤	-6324
▁预测	-6325
▁开业	-6326
▁1905	-6327
面体	-6328
中文	-6329
▁互动	-6330
▁造型	-6331
▁产物	-6332
▁换乘	-6333
▁俄罗斯联邦	-6334
▁畅	-6335
▁继位	-6336
▁高丽	-6337
▁更换	-6338
▁农历	-6339
▁户部	-6340
▁奶	-6341
▁后代	-6342
▁检测	-6343
▁金曲	-6344
▁交汇处	-6345
▁凹	-6346
▁椭	-6347
▁展现	-6348
▁主唱	-6349
▁灭亡	-6350
▁出土	-6351
▁好评	-6352
▁热带风暴	-6353
▁超越	-6354
▁建有	-6355
▁之际	-6356
▁代号	-6357
▁英超	-6358
▁掩	-6359
▁纳入	-6360
▁清真寺	-6361
▁描绘	-6362
▁软条	-6363
▁两国	-6364
▁反而	-6365
▁小姐	-6366
act	-6367
▁转任	-6368
▁马达	-6369
▁黑龙江省	-6370
▁弗雷	-6371
▁立法委员	-6372
▁获胜	-6373
▁十六年	-6374
▁格里	-6375
▁继任	-6376
▁Man	-6377
▁洪武	-6378
市场	-6379
▁州府	-6380
▁村民	-6381
▁徒	-6382
▁凝	-6383
▁踏	-6384
▁当作	-6385
▁颈	-6386
▁参见	-6387
▁合同	-6388
▁竣工	-6389
▁河口	-6390
▁离婚	-6391
ID	-6392
▁掉	-6393
▁任意	-6394
▁机器人	-6395
▁政治部	-6396
▁警告	-6397
▁便是	-6398
▁臀鳍	-6399
ode	-6400
▁雅典	-6401
▁拘	-6402
▁党委	-6403
▁吉林省	-6404
▁障碍	-6405
▁118	-6406
▁论坛	-6407
▁周刊	-6408
▁抄	-6409
▁他人	-6410
▁族群	-6411
▁有著	-6412
▁渐渐	-6413
▁一号	-6414
▁汝	-6415
▁祖籍	-6416
▁罚	-6417
▁剩下	-6418
▁透露	-6419
▁刑事	-6420
▁Se	-6421
▁哺乳	-6422
▁改编自	-6423
▁攀	-6424
iki	-6425
▁止	-6426
▁批复	-6427
▁学堂	-6428
▁DNA	-6429
▁芭	-6430
▁配备	-6431
▁十八年	-6432
▁橡	-6433
▁发言	-6434
▁※	-6435
▁必要	-6436
▁海湾	-6437
▁竞技	-6438
▁尼夫	-6439
▁拉萨	-6440
▁桌	-6441
▁一类	-6442
▁印度洋	-6443
▁亚美尼亚	-6444
▁穿越	-6445
ET	-6446
▁纠	-6447
▁Bar	-6448
▁凸	-6449
▁军衔	-6450
▁愿意	-6451
▁87	-6452
▁坠	-6453
▁荃	-6454
▁环保	-6455
▁低于	-6456
起来	-6457
▁南宋	-6458
▁地中	-6459
▁燃料	-6460
▁措施	-6461
▁永乐	-6462
▁三大	-6463
▁致力于	-6464
▁#	-6465
▁德军	-6466
▁驱逐舰	-6467
▁维修	-6468
▁新台	-6469
▁眼睛	-6470
金山	-6471
▁集体	-6472
▁虚拟	-6473
▁后续	-6474
▁夏天	-6475
▁不变	-6476
▁吊	-6477
常委会	-6478
纳斯	-6479
▁判决	-6480
▁月底	-6481
▁理查	-6482
山区	-6483
▁牧师	-6484
uk	-6485
▁物品	-6486
99	-6487
▁一说	-6488
▁曲线	-6489
▁地中海	-6490
▁排行榜	-6491
▁交给	-6492
▁嫁给	-6493
▁主权	-6494
▁匹	-6495
▁鹤	-6496
工作	-6497
▁斯坦	-6498
▁美术馆	-6499
英里	-6500
▁ch	-6501
▁中层	-6502
▁遍	-6503
产品	-6504
▁Linux	-6505
ien	-6506
▁寻求	-6507
▁依赖	-6508
▁归类	-6509
▁战术	-6510
▁踢	-6511
▁泰勒	-6512
▁癌	-6513
▁锁	-6514
▁1915	-6515
▁法庭	-6516
▁1916	-6517
▁遥	-6518
▁亚利桑	-6519
▁串	-6520
ium	-6521
▁德意	-6522
▁腾	-6523
▁趁	-6524
▁数码	-6525
▁众议院	-6526
▁衔	-6527
▁普罗	-6528
▁就任	-6529
▁崩	-6530
▁莱昂	-6531
▁罗马帝国	-6532
41	-6533
▁绥	-6534
▁胡同	-6535
▁给出	-6536
气压	-6537
▁凌晨	-6538
▁百姓	-6539
▁动车	-6540
▁甲第	-6541
ram	-6542
▁子弹	-6543
▁定位	-6544
▁之名	-6545
▁雕塑	-6546
▁重修	-6547
▁刺激	-6548
▁宁夏	-6549
▁1.2	-6550
▁块	-6551
▁壬	-6552
▁卢瓦尔	-6553
▁加尔	-6554
▁同治	-6555
此之外	-6556
▁除此之外	-6557
▁导师	-6558
▁绘入	-6559
▁普鲁	-6560
▁企图	-6561
▁青春	-6562
克尔	-6563
▁清华大学	-6564
ley	-6565
▁My	-6566
▁á	-6567
▁有线	-6568
▁漂	-6569
iel	-6570
公会	-6571
▁体积	-6572
▁刑部	-6573
▁星期一	-6574
▁爪	-6575
▁东区	-6576
▁莉	-6577
▁逐步	-6578
▁飞弹	-6579
▁摔	-6580
ime	-6581
▁写成	-6582
▁普拉	-6583
▁鹰	-6584
▁92	-6585
▁会计	-6586
▁信奉	-6587
▁直属	-6588
▁冀	-6589
生涯	-6590
▁深入	-6591
▁身为	-6592
ove	-6593
▁环绕	-6594
▁西元	-6595
威尔	-6596
▁牙齿	-6597
▁德意志	-6598
誉为	-6599
▁技巧	-6600
▁大队	-6601
▁标记	-6602
▁新台币	-6603
▁迁移	-6604
▁织田	-6605
▁饮食	-6606
▁人体	-6607
▁崇祯	-6608
▁PS	-6609
▁元帅	-6610
电视台	-6611
▁肝	-6612
▁卡斯蒂利亚	-6613
▁亦可	-6614
▁晶体	-6615
▁不知	-6616
▁古迹	-6617
▁威尼斯	-6618
比赛	-6619
▁拿下	-6620
分之一	-6621
lat	-6622
▁约瑟夫	-6623
▁沿线	-6624
▁职业生涯	-6625
▁地产	-6626
▁法学	-6627
▁任天	-6628
▁杜鹃	-6629
▁豫	-6630
▁观看	-6631
▁一千	-6632
▁刚果	-6633
▁推行	-6634
▁追求	-6635
▁圣诞	-6636
▁理工	-6637
▁感情	-6638
▁标题	-6639
▁百货	-6640
▁Mic	-6641
44	-6642
▁从未	-6643
▁穆罕	-6644
八年	-6645
▁后方	-6646
▁次数	-6647
马拉	-6648
▁福尔	-6649
▁Sain	-6650
师范	-6651
▁一员	-6652
▁根本	-6653
▁预算	-6654
▁极为	-6655
▁降雨	-6656
▁出色	-6657
▁参谋长	-6658
维埃	-6659
▁图形	-6660
▁菩萨	-6661
▁鲉	-6662
▁创办人	-6663
▁客车	-6664
▁直播	-6665
理学	-6666
▁科幻	-6667
▁市政府	-6668
五年	-6669
▁身高	-6670
▁攻占	-6671
98	-6672
▁抑制	-6673
▁纪念碑	-6674
▁筹备	-6675
▁郎中	-6676
▁宰相	-6677
▁任天堂	-6678
▁为期	-6679
篇小说	-6680
▁铜牌	-6681
▁交叉	-6682
ical	-6683
▁沿用	-6684
▁播映	-6685
▁凭借	-6686
▁以往	-6687
▁摧毁	-6688
▁扬州	-6689
▁银河	-6690
▁埔	-6691
▁性格	-6692
▁多伦多	-6693
▁承担	-6694
▁男演员	-6695
▁巴勒	-6696
▁理念	-6697
▁奥斯曼	-6698
UN	-6699
▁徽	-6700
ica	-6701
▁龙科	-6702
▁06	-6703
单位	-6704
▁韵	-6705
▁评审	-6706
▁野生	-6707
▁兵部	-6708
▁民进	-6709
ames	-6710
▁Intern	-6711
▁司铎	-6712
▁封为	-6713
空军	-6714
▁实体	-6715
▁工部	-6716
▁一本	-6717
▁虚构	-6718
▁房间	-6719
▁一面	-6720
▁一片	-6721
▁中以	-6722
▁名词	-6723
▁穆罕默	-6724
▁分区	-6725
cl	-6726
▁辉	-6727
▁国家级	-6728
▁还原	-6729
▁纽约市	-6730
▁王后	-6731
▁姊妹	-6732
▁准确	-6733
▁卡区	-6734
▁三级	-6735
▁队员	-6736
▁黑暗	-6737
▁Sy	-6738
▁削	-6739
▁增设	-6740
▁框	-6741
▁参观	-6742
▁斗争	-6743
▁战胜	-6744
▁认同	-6745
▁爱国	-6746
▁警报	-6747
▁и	-6748
▁行人	-6749
▁期刊	-6750
▁阔	-6751
▁往来	-6752
▁神父	-6753
▁污染	-6754
人士	-6755
▁幸福	-6756
克斯坦	-6757
▁英文名	-6758
▁推翻	-6759
▁事物	-6760
▁Univers	-6761
att	-6762
▁校舍	-6763
▁科罗	-6764
▁金刚	-6765
▁演变	-6766
47	-6767
▁乐器	-6768
▁拓跋	-6769
▁重组	-6770
▁辖下	-6771
▁or	-6772
▁手中	-6773
▁同进士	-6774
▁第一次世界大战	-6775
▁97	-6776
▁探索	-6777
▁水利	-6778
▁永远	-6779
▁Fran	-6780
▁终止	-6781
▁滚	-6782
称作	-6783
▁动工	-6784
▁宣告	-6785
▁被称作	-6786
力学	-6787
▁携带	-6788
维斯	-6789
▁团结	-6790
▁谈判	-6791
▁近年来	-6792
企业	-6793
▁其间	-6794
▁劳工	-6795
▁查尔斯	-6796
▁原作	-6797
▁第一百	-6798
▁三甲	-6799
▁撤退	-6800
▁1500	-6801
▁扣	-6802
中山	-6803
主任	-6804
▁次子	-6805
▁遗迹	-6806
▁诚	-6807
▁预备	-6808
▁尸体	-6809
▁接管	-6810
之子	-6811
▁地址	-6812
▁雷达	-6813
▁138	-6814
阶段	-6815
▁椭圆	-6816
▁穆罕默德	-6817
▁前者	-6818
46	-6819
▁人文	-6820
▁抗战	-6821
▁怎	-6822
▁AM	-6823
▁全体	-6824
▁庙宇	-6825
AP	-6826
▁代表作	-6827
▁公车	-6828
铁路局	-6829
▁NH	-6830
▁Comp	-6831
▁公寓	-6832
▁站房	-6833
▁细菌	-6834
▁瑟	-6835
▁对阵	-6836
▁立陶	-6837
▁翅	-6838
▁封面	-6839
▁德克	-6840
▁参议院	-6841
▁回合	-6842
▁各类	-6843
▁教友	-6844
▁群体	-6845
▁修订	-6846
▁通行	-6847
▁低气压	-6848
▁开启	-6849
▁阿布	-6850
▁now	-6851
▁加勒	-6852
▁绵	-6853
▁苍	-6854
▁梦想	-6855
▁总司令	-6856
▁1906	-6857
ED	-6858
▁改任	-6859
▁弃	-6860
处理	-6861
▁谢尔	-6862
int	-6863
▁清楚	-6864
▁十七年	-6865
ara	-6866
▁躲	-6867
▁办法	-6868
▁基区	-6869
▁言论	-6870
▁友谊	-6871
▁男人	-6872
▁绑	-6873
▁航天	-6874
▁一篇	-6875
▁弗兰	-6876
▁托尔	-6877
▁变换	-6878
▁土壤	-6879
▁之内	-6880
▁坊	-6881
▁颁奖典礼	-6882
▁本次	-6883
▁编组	-6884
▁协定	-6885
▁平民	-6886
▁今属	-6887
▁囚	-6888
▁自行车	-6889
▁数个	-6890
边形	-6891
▁立陶宛	-6892
▁代数	-6893
▁彻底	-6894
▁指控	-6895
▁洛克	-6896
▁丢	-6897
▁庚	-6898
▁想法	-6899
▁圣殿	-6900
▁厨	-6901
▁圣保	-6902
▁数十	-6903
▁辨	-6904
▁前来	-6905
▁南投	-6906
▁而后	-6907
▁之意	-6908
▁判处	-6909
▁印第	-6910
▁拔	-6911
▁马克思	-6912
▁1908	-6913
▁副总	-6914
▁压缩	-6915
▁中央军委	-6916
▁哈佛	-6917
▁提议	-6918
▁彗	-6919
▁史蒂	-6920
▁数值	-6921
字母	-6922
▁得分	-6923
▁英军	-6924
▁1907	-6925
43	-6926
▁前进	-6927
▁照顾	-6928
▁害	-6929
▁进口	-6930
▁07	-6931
▁光谱	-6932
▁径	-6933
▁社团	-6934
▁识别	-6935
▁--	-6936
▁存储	-6937
▁主编	-6938
▁花莲	-6939
▁Op	-6940
▁斯拉夫	-6941
▁元朗	-6942
▁字符	-6943
▁全程	-6944
▁银牌	-6945
▁印第安	-6946
▁阿尔巴	-6947
▁01	-6948
▁沟通	-6949
▁波士顿	-6950
▁投手	-6951
▁一段时间	-6952
▁第十二届	-6953
▁省委	-6954
▁剥	-6955
▁编制	-6956
▁德川	-6957
▁华北	-6958
▁伟大	-6959
▁大战	-6960
▁死去	-6961
▁尺寸	-6962
▁巴拿	-6963
▁濒	-6964
▁道德	-6965
▁邹	-6966
▁咸丰	-6967
▁名叫	-6968
▁搞	-6969
▁芙	-6970
九年	-6971
▁因应	-6972
▁解除	-6973
▁饶	-6974
▁91	-6975
▁姑	-6976
▁指挥官	-6977
▁为首	-6978
▁催化	-6979
▁镰	-6980
▁太郎	-6981
▁饭店	-6982
▁总长	-6983
▁肩	-6984
▁议题	-6985
▁巴斯	-6986
▁诗歌	-6987
▁纽西兰	-6988
AD	-6989
行政	-6990
▁湖广	-6991
▁限定	-6992
▁数学家	-6993
▁93	-6994
▁特里	-6995
▁鲸	-6996
▁愤	-6997
▁市内	-6998
▁打开	-6999
▁若干	-7000
▁嫡	-7001
▁Qu	-7002
▁某个	-7003
▁谥号	-7004
▁亮相	-7005
▁国外	-7006
▁消灭	-7007
▁定为	-7008
▁开播	-7009
立方米	-7010
▁事后	-7011
▁多为	-7012
▁多样	-7013
▁不但	-7014
▁同日	-7015
来说	-7016
编码	-7017
▁寺庙	-7018
▁预定	-7019
▁铝	-7020
▁一方	-7021
▁山口	-7022
▁长达	-7023
▁粮食	-7024
▁选拔	-7025
▁各有	-7026
▁及后	-7027
▁螺旋	-7028
▁批判	-7029
▁潜艇	-7030
ood	-7031
▁卡特	-7032
▁发达	-7033
▁魁	-7034
▁公立	-7035
▁王室	-7036
▁安娜	-7037
▁波罗	-7038
▁阁	-7039
▁村庄	-7040
▁角逐	-7041
▁颁布	-7042
▁哈利	-7043
▁外交部	-7044
▁天桥	-7045
▁跑道	-7046
▁民进党	-7047
▁福特	-7048
▁梯	-7049
▁物理学家	-7050
▁场上	-7051
▁网友	-7052
▁帕尔	-7053
▁迁往	-7054
▁疗	-7055
▁遮	-7056
▁黏	-7057
▁大军	-7058
纪录	-7059
▁体重	-7060
▁平方英里	-7061
▁炸弹	-7062
▁纷纷	-7063
▁一批	-7064
▁阎	-7065
▁改良	-7066
▁绝大	-7067
orn	-7068
▁工会	-7069
▁爱好	-7070
▁Met	-7071
▁索尼	-7072
▁赛车	-7073
▁电流	-7074
▁OS	-7075
▁峡	-7076
▁弓	-7077
▁强制	-7078
▁兔	-7079
▁苗栗	-7080
▁进球	-7081
▁新兴	-7082
▁复合	-7083
▁杀人	-7084
▁多人	-7085
▁九州	-7086
▁各项	-7087
▁堂区	-7088
▁乞	-7089
▁巷	-7090
anc	-7091
▁正义	-7092
▁推测	-7093
▁宋朝	-7094
▁曲目	-7095
▁高峰	-7096
▁代表队	-7097
▁补充	-7098
波罗	-7099
▁国共	-7100
▁涡	-7101
▁古希	-7102
▁肯定	-7103
▁原址	-7104
▁战败	-7105
▁新生	-7106
▁钢铁	-7107
▁领队	-7108
▁公务	-7109
▁考察	-7110
▁棉	-7111
▁整理	-7112
▁日报	-7113
▁不得不	-7114
卡罗	-7115
iam	-7116
▁道教	-7117
▁实业	-7118
▁进而	-7119
▁桓	-7120
▁县城	-7121
▁弘治	-7122
▁马德里	-7123
▁一路	-7124
分钟	-7125
洋舰	-7126
▁东路	-7127
▁防守	-7128
▁马其	-7129
德尔	-7130
▁始终	-7131
▁省道	-7132
▁基本上	-7133
▁婴	-7134
les	-7135
▁后卫	-7136
▁旁边	-7137
▁平等	-7138
AL	-7139
▁体型	-7140
▁旧金山	-7141
IM	-7142
函数	-7143
▁US	-7144
▁佩尔	-7145
▁温带	-7146
▁辞去	-7147
▁累积	-7148
▁立法会	-7149
own	-7150
▁Wh	-7151
▁高层	-7152
▁古希腊	-7153
▁第三次	-7154
▁南路	-7155
▁打造	-7156
▁长官	-7157
▁高地	-7158
▁精确	-7159
▁碘	-7160
开发	-7161
▁兄长	-7162
▁国有	-7163
▁白人	-7164
▁繁忙	-7165
▁维克	-7166
设施	-7167
文帝	-7168
▁148	-7169
▁反抗	-7170
▁鲤科	-7171
▁仰	-7172
▁卑	-7173
▁屋顶	-7174
▁阿肯	-7175
▁张家	-7176
▁日食	-7177
▁电气化	-7178
▁复制	-7179
▁顶级	-7180
▁0.3	-7181
▁支持者	-7182
▁澄	-7183
▁伙伴	-7184
▁马其顿	-7185
▁缴	-7186
御史	-7187
▁荃湾	-7188
▁Fre	-7189
▁孙中山	-7190
▁转化	-7191
江县	-7192
▁三名	-7193
orld	-7194
▁正统	-7195
▁妃	-7196
▁吧	-7197
拉多	-7198
收入	-7199
▁游行	-7200
▁疯	-7201
▁Saint	-7202
▁分数	-7203
▁大名	-7204
▁占地面积	-7205
▁学士学位	-7206
▁原料	-7207
▁演讲	-7208
▁靖	-7209
▁之称	-7210
▁哈里	-7211
▁射入	-7212
▁邮政编码	-7213
▁二层	-7214
▁行车	-7215
▁总是	-7216
▁医师	-7217
▁分享	-7218
▁纤维	-7219
▁贝克	-7220
▁1904	-7221
洛斯	-7222
▁伤害	-7223
▁斐	-7224
▁真人	-7225
▁华东	-7226
▁奖章	-7227
▁里斯	-7228
▁焚	-7229
▁旨在	-7230
▁传递	-7231
▁变更	-7232
▁溶液	-7233
▁过世	-7234
▁体制	-7235
▁斯科	-7236
▁编曲	-7237
▁5000	-7238
▁多元	-7239
▁新增	-7240
ML	-7241
▁草原	-7242
频道	-7243
▁内政	-7244
▁跨越	-7245
▁激烈	-7246
巴马州	-7247
▁分组	-7248
▁综艺节目	-7249
▁勾	-7250
▁男主角	-7251
离子	-7252
阶级	-7253
▁休息	-7254
▁瀑	-7255
▁担心	-7256
斯卡	-7257
ys	-7258
km	-7259
▁尼尔	-7260
enn	-7261
▁空调	-7262
▁专利	-7263
▁し	-7264
▁理事会	-7265
▁浸	-7266
▁特区	-7267
▁代表性	-7268
Station	-7269
▁四世	-7270
▁外界	-7271
▁帕拉	-7272
▁奖牌	-7273
▁营养	-7274
▁东面	-7275
▁燃烧	-7276
▁岗	-7277
ons	-7278
▁巴赫	-7279
▁搭配	-7280
▁变为	-7281
▁维拉	-7282
▁一大	-7283
▁天后	-7284
▁此前	-7285
▁溪流	-7286
▁立方	-7287
▁自从	-7288
▁交战	-7289
▁公告	-7290
▁内有	-7291
▁英里	-7292
▁财经	-7293
▁360	-7294
▁一个月	-7295
▁无线电	-7296
师范大学	-7297
▁掠	-7298
鲁斯	-7299
▁博览	-7300
▁沙漠	-7301
▁鲨	-7302
▁彼此	-7303
▁霍尔	-7304
▁109	-7305
ris	-7306
▁天空	-7307
会长	-7308
▁模仿	-7309
▁下游	-7310
▁圣马	-7311
▁夺取	-7312
▁晚间	-7313
▁股票	-7314
使用	-7315
▁劫	-7316
▁物业	-7317
▁工作人员	-7318
▁礁	-7319
▁武昌	-7320
▁判断	-7321
▁途径	-7322
▁半径	-7323
▁沃尔	-7324
▁悠	-7325
▁夜间	-7326
▁桐	-7327
▁官职	-7328
▁效率	-7329
▁女歌手	-7330
▁首歌曲	-7331
▁安东尼	-7332
▁液体	-7333
ere	-7334
▁Gre	-7335
▁一角	-7336
▁巴塞	-7337
▁消费者	-7338
▁二甲	-7339
▁草地	-7340
▁同性恋	-7341
▁北极	-7342
▁终身	-7343
▁球迷	-7344
▁倡	-7345
▁Is	-7346
▁规格	-7347
▁制造商	-7348
▁威尔斯	-7349
▁箭	-7350
▁饲	-7351
▁回答	-7352
▁临床	-7353
▁起源于	-7354
▁创意	-7355
▁广义	-7356
▁澎	-7357
▁讯号	-7358
▁足球队	-7359
歇尔	-7360
▁青山	-7361
▁基辅	-7362
ash	-7363
▁经费	-7364
▁录影带	-7365
▁服务器	-7366
▁山谷	-7367
▁动态	-7368
▁对话	-7369
▁小孩	-7370
▁晚年	-7371
▁大大	-7372
▁社群	-7373
▁亚马	-7374
ma	-7375
▁鸿	-7376
▁仅仅	-7377
ins	-7378
▁流亡	-7379
▁喝	-7380
▁橙	-7381
侍郎	-7382
▁瞄	-7383
▁西汉	-7384
▁一等	-7385
▁基督徒	-7386
▁放送	-7387
▁Will	-7388
▁亚利桑那州	-7389
▁Sup	-7390
▁园区	-7391
▁阿肯色	-7392
▁イ	-7393
▁愈	-7394
▁中正	-7395
▁选中	-7396
▁来源于	-7397
▁尼古拉	-7398
项目	-7399
▁剧团	-7400
▁大使馆	-7401
▁加热	-7402
▁新华	-7403
▁首批	-7404
▁几年	-7405
▁社长	-7406
▁混乱	-7407
▁迄	-7408
▁时装	-7409
▁希特	-7410
▁蛤	-7411
▁智能	-7412
▁现代化	-7413
▁蜂	-7414
ank	-7415
▁售票	-7416
▁统治者	-7417
▁铅	-7418
▁′	-7419
▁实践	-7420
ck	-7421
▁瓶	-7422
▁克斯	-7423
▁阶级	-7424
▁Rob	-7425
人大	-7426
▁PlayStation	-7427
海军	-7428
▁AKB	-7429
▁语音	-7430
▁劲	-7431
▁弄	-7432
▁畔	-7433
▁加勒比	-7434
▁鳃	-7435
▁文革	-7436
▁翠	-7437
▁小镇	-7438
▁厂商	-7439
▁编入	-7440
▁呼吸	-7441
▁司机	-7442
▁壳	-7443
▁心理学	-7444
▁卸	-7445
▁贵州省	-7446
西斯	-7447
▁旗帜	-7448
蒂安	-7449
▁城门	-7450
罗德	-7451
▁翡翠台	-7452
▁少量	-7453
▁阿姆	-7454
专辑	-7455
▁操作系统	-7456
▁漳	-7457
▁斯克	-7458
小学	-7459
▁零售	-7460
▁容量	-7461
▁异常	-7462
▁梨	-7463
▁舆	-7464
▁密码	-7465
▁国民革命	-7466
▁获取	-7467
▁强化	-7468
▁立场	-7469
ee	-7470
ild	-7471
▁获选	-7472
▁礼部	-7473
TS	-7474
▁创下	-7475
▁后任	-7476
▁电力机车	-7477
▁か	-7478
红色	-7479
▁妮	-7480
▁虹	-7481
▁词汇	-7482
▁即时	-7483
ille	-7484
▁接下来	-7485
▁冲击	-7486
提琴	-7487
▁复活	-7488
▁苏维埃	-7489
▁保卫	-7490
▁冰原	-7491
▁阿克	-7492
▁俞	-7493
▁艺名	-7494
▁坟	-7495
▁排球	-7496
▁维奇	-7497
▁上将	-7498
▁侧式	-7499
▁桂林	-7500
▁指标	-7501
▁长约	-7502
▁南朝	-7503
▁动车组	-7504
▁密切	-7505
▁彗星	-7506
▁类别	-7507
▁泉州	-7508
▁关联	-7509
▁时常	-7510
▁干线	-7511
▁此站	-7512
▁外部	-7513
▁情节	-7514
▁字体	-7515
▁按察	-7516
▁婚礼	-7517
▁株式	-7518
▁浩	-7519
ase	-7520
▁同志	-7521
▁改组	-7522
格勒	-7523
▁绘制	-7524
▁惩	-7525
会社	-7526
行为	-7527
▁攻入	-7528
他州	-7529
理工	-7530
▁株式会社	-7531
航空	-7532
ale	-7533
▁护照	-7534
▁电池	-7535
▁第一批	-7536
▁料	-7537
▁调查局	-7538
相同	-7539
▁古建筑	-7540
▁直线	-7541
▁近似	-7542
▁驻地	-7543
▁三层	-7544
▁尚有	-7545
▁阳光	-7546
▁诺尔	-7547
▁新型	-7548
▁乌斯	-7549
▁提前	-7550
▁斯里	-7551
▁星际	-7552
▁上诉	-7553
▁两大	-7554
▁石头	-7555
▁观塘	-7556
▁巴拿马	-7557
▁飞行员	-7558
▁电子游戏	-7559
row	-7560
▁1.1	-7561
▁月刊	-7562
▁坝	-7563
▁版权	-7564
5%	-7565
罗夫	-7566
▁西路	-7567
▁普及	-7568
PS	-7569
▁滇	-7570
▁铁路局	-7571
▁罕见	-7572
▁干燥	-7573
▁手法	-7574
▁时尚	-7575
▁酷	-7576
联盟	-7577
▁众人	-7578
▁命运	-7579
▁真菌	-7580
▁集团军	-7581
▁宫殿	-7582
▁局部	-7583
▁回家	-7584
▁改装	-7585
▁体内	-7586
▁政协	-7587
▁盆地	-7588
▁省份	-7589
▁Dr	-7590
▁楼梯	-7591
▁领事	-7592
及利亚	-7593
▁第四十	-7594
▁巴特	-7595
▁名录	-7596
▁搭载	-7597
▁三角形	-7598
IA	-7599
▁委内	-7600
校长	-7601
▁郑州	-7602
▁延安	-7603
▁电梯	-7604
▁示范	-7605
▁委内瑞	-7606
▁印象	-7607
▁吉士	-7608
▁多名	-7609
▁耶律	-7610
▁评选	-7611
▁委内瑞拉	-7612
▁陇	-7613
▁突厥	-7614
▁品质	-7615
▁奥古	-7616
▁神圣	-7617
▁3.5	-7618
▁迦	-7619
▁改设	-7620
▁相近	-7621
▁午	-7622
▁领衔	-7623
▁体验	-7624
▁福利	-7625
▁肇	-7626
▁向东	-7627
▁矛盾	-7628
▁高铁	-7629
▁一道	-7630
▁放置	-7631
▁无锡	-7632
▁等待	-7633
双打	-7634
▁讯息	-7635
平县	-7636
▁传教士	-7637
▁该镇	-7638
▁丑	-7639
▁卡塔	-7640
VE	-7641
▁尔斯	-7642
ps	-7643
▁卿	-7644
风格	-7645
eng	-7646
▁拿破	-7647
▁签证	-7648
▁发电厂	-7649
▁免疫	-7650
▁古城	-7651
▁突击	-7652
▁雕像	-7653
以来	-7654
▁On	-7655
▁便利	-7656
▁得票	-7657
▁粉丝	-7658
▁底质	-7659
▁防空	-7660
▁姿	-7661
▁先前	-7662
▁正德	-7663
▁硝	-7664
▁酶	-7665
▁车厢	-7666
▁食用鱼	-7667
▁优先	-7668
aul	-7669
▁做法	-7670
▁关东	-7671
▁托马斯	-7672
▁钓	-7673
▁周末	-7674
▁科研	-7675
▁第一代	-7676
ear	-7677
▁荧	-7678
▁董事会	-7679
▁金钟	-7680
伯利亚	-7681
▁Ro	-7682
洛克	-7683
▁策划	-7684
▁赛马	-7685
▁勘	-7686
▁却是	-7687
▁牛津	-7688
▁初中	-7689
▁恋爱	-7690
▁弦	-7691
▁光明	-7692
▁冲绳	-7693
▁参演	-7694
▁封闭	-7695
▁赣	-7696
▁School	-7697
▁嫌	-7698
牺牲	-7699
▁时刻	-7700
▁华语	-7701
网站	-7702
▁防卫	-7703
▁法师	-7704
▁两层	-7705
▁往返	-7706
ky	-7707
▁乐园	-7708
▁宿舍	-7709
▁时会	-7710
▁音乐会	-7711
▁350	-7712
▁巴布	-7713
▁脊椎	-7714
彼得	-7715
▁听到	-7716
▁诺夫	-7717
▁电压	-7718
▁国民革命军	-7719
▁拿破仑	-7720
▁牡	-7721
ony	-7722
▁Mo	-7723
▁病人	-7724
设备	-7725
▁堪萨斯州	-7726
▁亚当	-7727
▁瀑布	-7728
克林	-7729
▁粘	-7730
▁2.0	-7731
▁赔	-7732
环境	-7733
▁染色	-7734
▁一日	-7735
▁广播电台	-7736
▁过渡	-7737
水量	-7738
▁剑桥	-7739
▁纺织	-7740
▁香港政府	-7741
▁一旦	-7742
▁失踪	-7743
▁这张	-7744
▁III	-7745
▁唇	-7746
▁以至	-7747
▁万平方米	-7748
▁更好	-7749
兰卡	-7750
▁历代	-7751
榴弹	-7752
▁重播	-7753
olog	-7754
▁笼	-7755
IT	-7756
▁欠	-7757
▁逃亡	-7758
▁国防部	-7759
▁β	-7760
▁水中	-7761
▁氯化	-7762
ower	-7763
▁Dav	-7764
▁酿	-7765
家庄	-7766
▁血液	-7767
▁那个	-7768
▁援助	-7769
茨基	-7770
▁1898	-7771
▁匈牙利语	-7772
▁佛罗里达州	-7773
▁反射	-7774
▁贡士	-7775
ple	-7776
▁展出	-7777
▁庞大	-7778
▁1902	-7779
丁堡	-7780
▁依靠	-7781
▁天王	-7782
ance	-7783
▁世纪末	-7784
▁朝阳	-7785
运输	-7786
▁阿肯色州	-7787
▁一艘	-7788
▁窦	-7789
▁腰	-7790
▁故居	-7791
▁编译	-7792
▁弹药	-7793
▁浓度	-7794
▁清军	-7795
七年	-7796
▁For	-7797
位数	-7798
▁热门	-7799
▁北洋	-7800
▁成果	-7801
▁福音	-7802
▁随之	-7803
▁被誉为	-7804
▁青海省	-7805
▁巩	-7806
▁水上	-7807
▁兰州	-7808
▁阿拉巴马州	-7809
▁渠	-7810
▁棱	-7811
▁件	-7812
▁蝶	-7813
▁嘉宾	-7814
▁1895	-7815
▁聪	-7816
▁蒸汽	-7817
▁维基	-7818
▁框架	-7819
▁冰岛	-7820
▁搬迁	-7821
▁啤	-7822
蛋白	-7823
isc	-7824
▁影展	-7825
▁教导	-7826
ward	-7827
▁尿	-7828
▁珀	-7829
▁死刑	-7830
▁pro	-7831
▁大洋	-7832
▁取名	-7833
7%	-7834
ana	-7835
▁加泰	-7836
▁情绪	-7837
新闻	-7838
US	-7839
▁分开	-7840
▁化工	-7841
▁奋	-7842
▁提交	-7843
▁本部	-7844
▁台湾大学	-7845
▁暖	-7846
▁三百	-7847
▁乘坐	-7848
▁北岸	-7849
3%	-7850
▁е	-7851
▁云林	-7852
▁Per	-7853
▁灌木	-7854
▁透明	-7855
▁1.3	-7856
▁元音	-7857
▁某种	-7858
2%	-7859
▁【	-7860
▁决策	-7861
▁大门	-7862
▁简化	-7863
▁高于	-7864
▁名列	-7865
▁河内	-7866
▁享有	-7867
▁洪水	-7868
▁灵魂	-7869
▁节点	-7870
▁】	-7871
▁侨	-7872
出版	-7873
法尔	-7874
▁电路	-7875
▁充分	-7876
▁季节	-7877
▁人称	-7878
▁徐州	-7879
▁日子	-7880
▁汀	-7881
▁开国	-7882
▁闽南	-7883
▁一期	-7884
▁前线	-7885
▁难民	-7886
▁公子	-7887
▁员外	-7888
▁法定	-7889
加尔	-7890
▁02	-7891
▁Net	-7892
▁第一任	-7893
▁索尔	-7894
▁图片	-7895
▁范畴	-7896
▁As	-7897
▁入境	-7898
▁巴克	-7899
▁白俄	-7900
▁资深	-7901
▁1.0	-7902
▁一架	-7903
▁完美	-7904
▁隆头	-7905
▁AS	-7906
▁中环	-7907
▁亚种	-7908
▁创业	-7909
▁执教	-7910
▁中等	-7911
▁HK	-7912
▁进出	-7913
▁开封	-7914
▁中断	-7915
▁信任	-7916
▁杉	-7917
▁汉堡	-7918
▁秩	-7919
▁北端	-7920
▁与此	-7921
▁三部	-7922
6%	-7923
▁炼	-7924
计划	-7925
▁领先	-7926
▁一代	-7927
▁武术	-7928
▁至此	-7929
▁н	-7930
▁影评	-7931
▁处长	-7932
8%	-7933
▁í	-7934
▁普鲁士	-7935
▁人气	-7936
▁俄语	-7937
▁首部	-7938
▁个性	-7939
▁伊尔	-7940
▁千叶	-7941
▁阿斯	-7942
▁癸	-7943
▁后人	-7944
▁书店	-7945
▁戈尔	-7946
▁枢机	-7947
▁常数	-7948
▁舌	-7949
▁卡是	-7950
▁班机	-7951
▁129	-7952
开放	-7953
▁斯泰	-7954
▁牧区	-7955
▁阵亡	-7956
▁倪	-7957
▁Ac	-7958
▁169	-7959
▁陀	-7960
▁04	-7961
▁出局	-7962
▁各省	-7963
▁布局	-7964
▁更大	-7965
▁枢纽	-7966
▁召集	-7967
▁板块	-7968
▁西门	-7969
▁轰炸机	-7970
▁外围赛	-7971
▁高等学校	-7972
▁广为	-7973
▁横滨	-7974
▁Med	-7975
▁南北朝	-7976
▁寓	-7977
▁南下	-7978
▁志愿	-7979
▁过度	-7980
ava	-7981
▁世代	-7982
▁阿拉斯加	-7983
▁履	-7984
▁盾	-7985
莎白	-7986
哈尔	-7987
ron	-7988
▁电磁	-7989
▁五代	-7990
飞机	-7991
▁战死	-7992
▁法令	-7993
▁西面	-7994
玫瑰	-7995
▁北伐	-7996
stem	-7997
▁连同	-7998
▁Tw	-7999
▁放射	-8000
▁磷酸	-8001
▁路径	-8002
▁南斯	-8003
▁电信	-8004
▁隆头鱼	-8005
▁SN	-8006
▁sh	-8007
▁真的	-8008
▁2.2	-8009
▁福冈	-8010
▁肌肉	-8011
▁殉	-8012
▁岛峰	-8013
▁侄	-8014
▁SP	-8015
▁沙特	-8016
▁肿	-8017
▁克劳	-8018
▁孔子	-8019
▁政变	-8020
▁可靠	-8021
▁校友	-8022
▁亡	-8023
ude	-8024
▁炎	-8025
▁不幸	-8026
▁County	-8027
▁藤原	-8028
▁诸多	-8029
▁赤道	-8030
▁骚	-8031
▁进军	-8032
▁流量	-8033
▁宗室	-8034
▁更改	-8035
▁欺	-8036
▁总督府	-8037
▁吗	-8038
▁政治委员	-8039
▁老人	-8040
▁候补	-8041
▁基尔	-8042
▁相机	-8043
▁社交	-8044
▁过于	-8045
▁亩	-8046
▁波音	-8047
▁清末	-8048
▁日记	-8049
▁涉嫌	-8050
▁男孩	-8051
处长	-8052
方案	-8053
ark	-8054
▁一边	-8055
▁大于	-8056
▁景观	-8057
▁当前	-8058
▁垃	-8059
▁停留	-8060
▁座位	-8061
▁1.6	-8062
距离	-8063
▁104	-8064
▁北大	-8065
▁安达	-8066
▁贬	-8067
▁承诺	-8068
▁还要	-8069
▁历史学家	-8070
▁SM	-8071
▁混凝	-8072
▁车手	-8073
▁is	-8074
▁围棋	-8075
▁多部	-8076
▁部署	-8077
▁阿尔卑	-8078
▁后世	-8079
▁首届	-8080
▁102	-8081
▁圣保罗	-8082
GB	-8083
▁火灾	-8084
rist	-8085
▁数千	-8086
9%	-8087
▁体现	-8088
▁回来	-8089
▁小巴	-8090
▁浪漫	-8091
▁保育	-8092
▁城内	-8093
▁枪管	-8094
▁二氧化	-8095
▁庐	-8096
尔顿	-8097
▁呼吁	-8098
▁相传	-8099
▁示威	-8100
西里	-8101
▁从小	-8102
▁斯里兰卡	-8103
▁大帝	-8104
▁独自	-8105
▁竖	-8106
▁时速	-8107
▁标示	-8108
▁伊万	-8109
▁澎湖	-8110
安全	-8111
▁奴隶	-8112
▁混凝土	-8113
▁全国人大	-8114
▁次日	-8115
▁Love	-8116
▁Micros	-8117
成功	-8118
▁借由	-8119
▁漏	-8120
像奖	-8121
▁公社	-8122
▁晴	-8123
▁ス	-8124
▁庇	-8125
▁两部	-8126
▁八十	-8127
▁生母	-8128
▁盲	-8129
▁微博	-8130
▁中南部	-8131
4%	-8132
▁浏览器	-8133
▁诊断	-8134
▁身亡	-8135
▁第二季	-8136
▁地表	-8137
▁139	-8138
▁1.8	-8139
▁参赛者	-8140
▁募	-8141
足联	-8142
▁正规	-8143
▁神学	-8144
▁诸葛	-8145
▁烹	-8146
▁悉尼	-8147
illa	-8148
▁排名第	-8149
▁克罗地亚	-8150
▁顶点	-8151
▁星期日	-8152
▁垃圾	-8153
纳州	-8154
▁AV	-8155
▁Gu	-8156
▁送到	-8157
▁廷	-8158
LE	-8159
▁ü	-8160
本科	-8161
▁活佛	-8162
▁囊	-8163
▁予以	-8164
▁大厅	-8165
▁奥利	-8166
▁礼拜	-8167
▁选民	-8168
▁沼泽	-8169
▁爱沙	-8170
▁巡回演	-8171
▁否则	-8172
▁丘陵	-8173
▁四人	-8174
▁牺牲	-8175
▁MP	-8176
▁Mag	-8177
▁爱沙尼亚	-8178
▁雾	-8179
▁变形	-8180
▁南端	-8181
▁姐姐	-8182
▁景点	-8183
▁伞	-8184
▁南南	-8185
▁欧阳	-8186
▁使者	-8187
▁只好	-8188
▁红军	-8189
▁哀	-8190
ose	-8191
▁面包	-8192
▁出于	-8193
▁押	-8194
▁湿地	-8195
▁前方	-8196
▁剩余	-8197
▁妙	-8198
▁广岛	-8199
▁游乐	-8200
▁琳	-8201
▁119	-8202
交易	-8203
▁调节	-8204
▁白俄罗斯	-8205
福德	-8206
▁快乐	-8207
▁该书	-8208
▁Har	-8209
长官	-8210
佛教	-8211
▁上半	-8212
▁阿尔卑斯	-8213
OC	-8214
▁缓慢	-8215
af	-8216
▁谋杀	-8217
▁贝格	-8218
rit	-8219
▁追溯	-8220
▁乒	-8221
▁栏	-8222
▁闯	-8223
▁AR	-8224
▁哈德	-8225
事中	-8226
▁给事中	-8227
▁啤酒	-8228
▁常规	-8229
▁玻利	-8230
▁有利	-8231
洛夫	-8232
▁小于	-8233
省委	-8234
▁乙级	-8235
▁晋升为	-8236
▁特种	-8237
▁诸侯	-8238
▁巡洋舰	-8239
▁下半	-8240
▁上任	-8241
▁合肥	-8242
▁高级中学	-8243
▁军籍	-8244
▁胆	-8245
ald	-8246
标准	-8247
▁横跨	-8248
▁节奏	-8249
▁中途	-8250
民主主义	-8251
▁南斯拉夫	-8252
▁老板	-8253
▁中医	-8254
▁兴起	-8255
▁图尔	-8256
▁极限	-8257
▁青铜	-8258
▁企业家	-8259
▁饱	-8260
▁受损	-8261
▁西边	-8262
▁步行	-8263
▁行李	-8264
▁纽约州	-8265
▁迟	-8266
耶夫	-8267
▁俄亥	-8268
▁感受	-8269
▁荔	-8270
▁侵略	-8271
▁故此	-8272
erm	-8273
irl	-8274
▁出赛	-8275
▁俄亥俄	-8276
▁映射	-8277
▁一台	-8278
ade	-8279
▁据点	-8280
▁天文学	-8281
1%	-8282
▁鳕	-8283
▁精选	-8284
▁广西壮	-8285
▁车道	-8286
▁大城市	-8287
▁机枪	-8288
▁自主	-8289
▁语法	-8290
▁丸	-8291
▁月份	-8292
▁立体	-8293
▁观赏鱼	-8294
▁天正	-8295
II	-8296
▁220	-8297
▁0.4	-8298
▁星期六	-8299
斯堡	-8300
▁县人	-8301
▁后面	-8302
▁州立	-8303
▁进修	-8304
▁进程	-8305
▁相较	-8306
▁All	-8307
条件	-8308
皇后	-8309
oth	-8310
▁149	-8311
▁龚	-8312
▁先锋	-8313
▁译名	-8314
▁降雨量	-8315
▁阿尔巴尼亚	-8316
▁拯	-8317
ics	-8318
▁顶部	-8319
▁乔治亚	-8320
▁管制	-8321
▁高清	-8322
▁七个	-8323
▁握	-8324
指挥	-8325
▁广西壮族自治区	-8326
▁费尔	-8327
▁矢	-8328
▁联军	-8329
▁煮	-8330
▁诛	-8331
▁公演	-8332
▁金门	-8333
▁少数民族	-8334
▁处死	-8335
地产	-8336
▁宇文	-8337
▁有意	-8338
▁受害	-8339
▁型态	-8340
▁矿物	-8341
▁总计	-8342
tain	-8343
▁裕	-8344
▁温哥	-8345
▁事迹	-8346
▁讲师	-8347
▁温哥华	-8348
▁改由	-8349
▁果实	-8350
▁郊区	-8351
ence	-8352
▁弹劾	-8353
▁深海	-8354
▁通称	-8355
▁第二代	-8356
lex	-8357
▁迫使	-8358
▁升降	-8359
ler	-8360
▁四等	-8361
▁普尔	-8362
▁胎	-8363
▁总兵	-8364
▁熟悉	-8365
▁铃木	-8366
▁党委书记	-8367
▁文化遗产	-8368
▁总体	-8369
▁暂停	-8370
▁职员	-8371
ini	-8372
▁聂	-8373
▁军方	-8374
▁三十年	-8375
卫队	-8376
▁一属	-8377
▁开创	-8378
卫生	-8379
同时	-8380
▁爵位	-8381
▁百年	-8382
▁与此同时	-8383
德罗	-8384
▁奇幻	-8385
▁大批	-8386
人物	-8387
方形	-8388
▁伴随	-8389
▁微分	-8390
▁截止	-8391
▁路德	-8392
▁车体	-8393
能力	-8394
▁情感	-8395
▁饥	-8396
▁季后	-8397
▁亚洲电视	-8398
▁舖	-8399
▁守备	-8400
▁锯	-8401
▁乌尔	-8402
▁敖	-8403
▁老挝	-8404
▁远东	-8405
eth	-8406
▁此类	-8407
▁盟军	-8408
▁隋朝	-8409
▁不同于	-8410
▁役	-8411
▁南边	-8412
▁友好	-8413
▁106	-8414
▁1.4	-8415
▁尼日	-8416
▁开行	-8417
▁清治	-8418
▁彰化县	-8419
▁同一个	-8420
▁太平洋区	-8421
▁不论	-8422
▁Microsoft	-8423
▁滤	-8424
▁邢	-8425
▁安置	-8426
▁最具	-8427
▁此剧	-8428
▁休闲	-8429
▁新村	-8430
▁猴	-8431
▁р	-8432
▁吋	-8433
▁DC	-8434
▁箱	-8435
▁出资	-8436
陆军	-8437
▁五世	-8438
▁鹦	-8439
德国	-8440
▁刊登	-8441
▁固体	-8442
▁菲利普	-8443
▁灰色	-8444
▁2.3	-8445
▁金额	-8446
▁è	-8447
▁其为	-8448
▁历经	-8449
▁片段	-8450
▁脂肪	-8451
▁笔名	-8452
▁仪器	-8453
机场	-8454
▁Ab	-8455
▁南站	-8456
▁县长	-8457
▁司徒	-8458
▁收视率	-8459
▁第二张	-8460
▁胃	-8461
▁Gro	-8462
▁继承人	-8463
▁厄尔	-8464
▁团长	-8465
▁昔日	-8466
▁部位	-8467
▁喙	-8468
▁适当	-8469
太后	-8470
▁县治	-8471
▁大败	-8472
▁阿尔及利亚	-8473
▁北路	-8474
▁蒋介	-8475
▁西区	-8476
oci	-8477
▁执法	-8478
▁音译	-8479
▁103	-8480
道夫	-8481
▁出家	-8482
▁得主	-8483
▁细小	-8484
▁含量	-8485
▁当然	-8486
▁移交	-8487
▁出兵	-8488
▁里奥	-8489
▁音乐家	-8490
夫人	-8491
▁坏	-8492
▁史料	-8493
▁た	-8494
▁降落	-8495
▁膜	-8496
▁生前	-8497
民主党	-8498
▁htt	-8499
▁World	-8500
▁发送	-8501
▁尼奥	-8502
▁德里	-8503
▁义务	-8504
▁普里	-8505
▁栖息地	-8506
ome	-8507
▁南美	-8508
▁编修	-8509
▁专员	-8510
▁主机	-8511
▁新教	-8512
▁Char	-8513
▁车型	-8514
MA	-8515
▁潭	-8516
▁足球赛	-8517
▁SS	-8518
▁水系	-8519
▁湾仔	-8520
▁专科学校	-8521
联合	-8522
▁雕刻	-8523
▁鲶科	-8524
▁MS	-8525
▁皇室	-8526
▁购入	-8527
▁忘	-8528
▁删除	-8529
▁利物	-8530
▁黑人	-8531
▁蒋介石	-8532
▁香港电影	-8533
▁绰	-8534
▁一线	-8535
▁宋代	-8536
▁北北	-8537
▁ā	-8538
▁交往	-8539
▁朔	-8540
▁橘	-8541
▁开辟	-8542
▁度假	-8543
▁预期	-8544
▁马力	-8545
▁斯洛伐克	-8546
▁伺	-8547
▁巢	-8548
IG	-8549
▁西岸	-8550
▁这位	-8551
▁奖励	-8552
基地	-8553
▁京师	-8554
▁剂	-8555
▁分类法	-8556
▁1890	-8557
导体	-8558
▁系数	-8559
▁杆	-8560
▁EP	-8561
▁发育	-8562
▁城际	-8563
▁滑雪	-8564
▁癌症	-8565
▁可能性	-8566
▁东站	-8567
▁京剧	-8568
▁名古	-8569
▁当初	-8570
▁细节	-8571
▁变量	-8572
列颠	-8573
▁胞	-8574
▁工党	-8575
▁广大	-8576
▁格兰	-8577
▁鳗	-8578
▁深受	-8579
▁舞台剧	-8580
ake	-8581
▁列宁	-8582
▁海盗	-8583
▁瞄准	-8584
▁乌鲁	-8585
▁条款	-8586
▁立刻	-8587
吉亚	-8588
▁柄	-8589
▁租借	-8590
▁月初	-8591
▁前期	-8592
▁血统	-8593
▁名古屋	-8594
▁内蒙古自治区	-8595
▁定律	-8596
▁目录	-8597
▁确实	-8598
▁数据库	-8599
▁ル	-8600
▁一周	-8601
▁功率	-8602
▁中位数	-8603
▁乒乓	-8604
roid	-8605
▁CC	-8606
▁初步	-8607
▁权威	-8608
▁科学院	-8609
▁闲	-8610
江市	-8611
▁响应	-8612
▁全年	-8613
▁宫廷	-8614
▁布置	-8615
▁改用	-8616
▁利物浦	-8617
▁鲶形	-8618
▁行政长官	-8619
▁0.6	-8620
▁央	-8621
服务	-8622
软件	-8623
▁续集	-8624
▁自治市	-8625
▁University	-8626
▁施行	-8627
▁在线	-8628
▁活性	-8629
▁之用	-8630
▁房地产	-8631
▁评论家	-8632
▁山镇	-8633
▁粗体	-8634
ous	-8635
▁莲花	-8636
▁Open	-8637
▁疫	-8638
ari	-8639
▁三星	-8640
▁埃塞	-8641
博物馆	-8642
▁Sm	-8643
▁人均	-8644
▁所长	-8645
▁排序	-8646
▁大学生	-8647
oo	-8648
▁战舰	-8649
▁消除	-8650
▁重力	-8651
罗门	-8652
▁优惠	-8653
汽车	-8654
▁三条	-8655
▁父子	-8656
▁隐藏	-8657
▁鼎	-8658
蝴蝶	-8659
lor	-8660
▁俘虏	-8661
▁手下	-8662
▁西伯利亚	-8663
宁县	-8664
▁李氏	-8665
▁街头	-8666
▁楚国	-8667
▁河东	-8668
▁录音室	-8669
▁科罗拉多	-8670
▁差别	-8671
▁nowiki	-8672
▁山上	-8673
▁拯救	-8674
▁樟	-8675
▁参议员	-8676
期间	-8677
▁差距	-8678
▁转入	-8679
▁中北	-8680
▁毕业生	-8681
▁第五十	-8682
▁安定	-8683
▁平成	-8684
▁新一	-8685
▁多项式	-8686
▁讽	-8687
▁北约	-8688
▁草本	-8689
▁起兵	-8690
ement	-8691
▁闵	-8692
▁火力	-8693
▁擢	-8694
▁孙子	-8695
▁不用	-8696
▁烈士	-8697
▁第二届	-8698
▁娘	-8699
政策	-8700
▁悬挂	-8701
十年代	-8702
▁亚马逊	-8703
奥尔	-8704
▁迄今	-8705
▁Pet	-8706
▁嵌	-8707
▁密西	-8708
行政区	-8709
▁中华民国政府	-8710
▁一辆	-8711
▁克鲁	-8712
▁氨基	-8713
▁永安	-8714
▁帽	-8715
▁人力	-8716
▁大力	-8717
▁硬棘	-8718
▁弧	-8719
▁传送	-8720
▁得出	-8721
▁忧	-8722
▁炒	-8723
▁阐	-8724
▁婴儿	-8725
▁得奖	-8726
▁宴	-8727
▁影业	-8728
▁西克	-8729
▁季军	-8730
▁期望	-8731
▁镇守	-8732
生素	-8733
▁俗名	-8734
▁汤姆	-8735
out	-8736
▁周恩	-8737
▁灵感	-8738
▁身边	-8739
▁仇	-8740
▁华侨	-8741
▁所得	-8742
▁深圳市	-8743
▁宦	-8744
特别	-8745
▁大马	-8746
▁运河	-8747
mer	-8748
▁不敢	-8749
▁议长	-8750
▁迫害	-8751
▁护卫	-8752
▁日出	-8753
▁运送	-8754
oph	-8755
▁造船	-8756
▁薪	-8757
▁03	-8758
▁宅	-8759
▁前任	-8760
▁圣公会	-8761
▁玫瑰	-8762
ound	-8763
▁夷	-8764
如此	-8765
吉尼亚	-8766
▁妈妈	-8767
▁富有	-8768
▁栖性	-8769
▁流放	-8770
▁累计	-8771
▁幅	-8772
▁遗体	-8773
▁周恩来	-8774
▁遇上	-8775
国会	-8776
▁主播	-8777
▁判定	-8778
▁学派	-8779
DS	-8780
▁保定	-8781
▁全美	-8782
▁东岸	-8783
▁确立	-8784
▁理事长	-8785
▁Ag	-8786
干线	-8787
▁夫妻	-8788
特别行政区	-8789
▁蓄	-8790
徒刑	-8791
▁干扰	-8792
▁面前	-8793
期徒刑	-8794
▁四周	-8795
▁腹部	-8796
▁ISO	-8797
▁蜜	-8798
▁称赞	-8799
时报	-8800
▁来看	-8801
▁客机	-8802
▁末端	-8803
▁西藏自治区	-8804
森堡	-8805
▁不如	-8806
▁乡份	-8807
▁人事	-8808
▁Ne	-8809
▁专案	-8810
▁侦察	-8811
▁菊科	-8812
▁观念	-8813
ited	-8814
▁潟	-8815
伦敦	-8816
▁八个	-8817
▁英国伦敦	-8818
▁混血	-8819
▁顺位	-8820
▁One	-8821
全国	-8822
▁约克	-8823
▁选票	-8824
▁1889	-8825
▁氮	-8826
▁包装	-8827
▁化学式	-8828
▁床	-8829
▁2.4	-8830
▁壁画	-8831
▁年末	-8832
▁节日	-8833
▁仕	-8834
莱坞	-8835
▁乡道	-8836
▁候车	-8837
▁雀	-8838
ata	-8839
▁权益	-8840
▁学历	-8841
▁荆州	-8842
▁兵团	-8843
▁战区	-8844
▁板桥	-8845
▁初级	-8846
庄村	-8847
▁聚会	-8848
▁极端	-8849
▁专注	-8850
▁一小	-8851
▁磅	-8852
▁生日	-8853
▁首映	-8854
伦斯	-8855
哈拉	-8856
▁岭南	-8857
▁钻石	-8858
▁传承	-8859
▁伊夫	-8860
▁别墅	-8861
▁包裹	-8862
▁转型	-8863
▁底部	-8864
▁植物种	-8865
▁生物学	-8866
▁兵力	-8867
▁南岸	-8868
▁背面	-8869
▁全日	-8870
▁北区	-8871
▁意图	-8872
▁武士	-8873
▁一体	-8874
▁公约	-8875
▁深刻	-8876
▁Cat	-8877
▁Game	-8878
▁双向	-8879
▁可惜	-8880
▁河谷	-8881
▁推理	-8882
事业	-8883
氨酸	-8884
▁雄性	-8885
▁喉	-8886
▁巨人	-8887
▁生效	-8888
▁起诉	-8889
▁偏西	-8890
▁溶于	-8891
▁博览会	-8892
▁鸣	-8893
红军	-8894
▁死者	-8895
▁州长	-8896
▁单行	-8897
▁萨摩	-8898
▁GN	-8899
▁莱斯	-8900
▁行政村	-8901
▁混淆	-8902
▁三十四年	-8903
▁虞	-8904
▁商标	-8905
▁斯蒂	-8906
▁各大	-8907
▁社会学	-8908
球会	-8909
▁公国	-8910
▁国籍	-8911
▁创刊	-8912
▁该寺	-8913
▁帕特	-8914
▁员外郎	-8915
▁阿拉伯语	-8916
▁哈特	-8917
du	-8918
太宗	-8919
▁暗杀	-8920
▁107	-8921
▁ó	-8922
▁检验	-8923
▁纪念馆	-8924
▁寨	-8925
▁廊	-8926
▁曝	-8927
事务	-8928
▁国子	-8929
▁Java	-8930
▁武将	-8931
▁珍珠	-8932
▁译作	-8933
▁泄	-8934
▁废止	-8935
▁恶魔	-8936
▁俊	-8937
▁解析	-8938
▁藻	-8939
空间	-8940
▁海滩	-8941
▁1896	-8942
ink	-8943
▁公益	-8944
▁国土	-8945
▁技能	-8946
▁晨	-8947
▁Super	-8948
▁享受	-8949
▁捐赠	-8950
▁蝴蝶	-8951
▁鲀	-8952
▁下设	-8953
▁吉祥	-8954
▁长老	-8955
▁鱼雷	-8956
▁挺	-8957
▁一队	-8958
▁排除	-8959
▁路上	-8960
▁运载	-8961
▁扇	-8962
▁那样	-8963
▁TVB	-8964
58	-8965
约翰	-8966
▁别人	-8967
▁藏传	-8968
▁西洋	-8969
▁加泰罗	-8970
▁第一季	-8971
▁枝	-8972
▁率军	-8973
▁主任委员	-8974
▁加泰罗尼亚	-8975
▁中北部	-8976
▁发电机	-8977
▁家臣	-8978
▁支撑	-8979
▁禾本科	-8980
▁否认	-8981
▁朝鲜半岛	-8982
▁中亚	-8983
法尔茨	-8984
▁第二名	-8985
▁普法尔茨	-8986
▁交通部	-8987
青年	-8988
▁iP	-8989
▁台东	-8990
▁总局	-8991
▁数年	-8992
▁水面	-8993
▁分散	-8994
▁拦	-8995
▁0.9	-8996
▁姐妹	-8997
ott	-8998
▁诉讼	-8999
▁起飞	-9000
▁间接	-9001
▁南京市	-9002
▁法学院	-9003
英镑	-9004
▁认知	-9005
▁航行	-9006
▁艾伦	-9007
▁第十三届	-9008
▁Cor	-9009
▁客串	-9010
▁指责	-9011
学金	-9012
▁呢	-9013
▁郝	-9014
▁五百	-9015
▁沧	-9016
▁南华	-9017
▁神奈	-9018
▁辣	-9019
气候	-9020
▁因子	-9021
▁玩具	-9022
▁NHK	-9023
▁二十世纪	-9024
ii	-9025
▁榆	-9026
▁穿著	-9027
▁里程	-9028
▁三千	-9029
▁坂	-9030
▁窑	-9031
itt	-9032
▁出境	-9033
▁著称	-9034
▁位居	-9035
▁总决赛	-9036
▁新鲜	-9037
排名	-9038
ve	-9039
▁钩	-9040
▁族人	-9041
▁机组	-9042
▁1200	-9043
▁袋	-9044
▁北站	-9045
▁Enter	-9046
蝙蝠	-9047
▁改成	-9048
诺夫	-9049
▁吉隆	-9050
▁无关	-9051
▁袁世	-9052
▁雅各	-9053
▁事宜	-9054
▁西贡	-9055
▁Mich	-9056
▁International	-9057
▁军长	-9058
▁枫	-9059
多数	-9060
▁作客	-9061
▁军舰	-9062
▁后备	-9063
▁四名	-9064
▁辖境	-9065
▁其他人	-9066
▁甄	-9067
龙省	-9068
▁体操	-9069
▁肃	-9070
▁FC	-9071
▁天水	-9072
勒斯	-9073
▁个别	-9074
▁师范学校	-9075
▁堤	-9076
▁CR	-9077
▁司令员	-9078
▁物资	-9079
▁直通	-9080
▁0.7	-9081
▁岬	-9082
▁姓名	-9083
▁1897	-9084
▁と	-9085
▁处决	-9086
MS	-9087
▁硫酸	-9088
▁立法院	-9089
0%	-9090
▁帆	-9091
▁流通	-9092
ress	-9093
布尔	-9094
▁Pl	-9095
▁0.8	-9096
▁5.5	-9097
▁财富	-9098
▁Android	-9099
▁树木	-9100
▁白垩	-9101
▁完结	-9102
▁早已	-9103
单打	-9104
▁威斯	-9105
▁拉姆	-9106
▁长城	-9107
▁ا	-9108
▁人间	-9109
▁场合	-9110
▁分部	-9111
▁整数	-9112
▁官方网站	-9113
▁宣言	-9114
▁高尔夫	-9115
印度	-9116
▁一时	-9117
▁两地	-9118
▁中兴	-9119
▁上层	-9120
▁文本	-9121
▁完颜	-9122
▁实用	-9123
▁摄政	-9124
▁西里	-9125
▁里昂	-9126
▁希腊语	-9127
ail	-9128
▁总管	-9129
▁敏感	-9130
▁散文	-9131
▁讽刺	-9132
▁怀孕	-9133
▁万张	-9134
▁墓地	-9135
Hz	-9136
▁樊	-9137
▁此书	-9138
▁入学	-9139
▁减弱	-9140
▁平坦	-9141
▁各级	-9142
▁木材	-9143
▁要塞	-9144
▁配乐	-9145
▁桃园市	-9146
▁ア	-9147
▁华南	-9148
▁地层	-9149
▁旋律	-9150
▁灌丛	-9151
▁甲基	-9152
▁金山	-9153
拉尔	-9154
▁Music	-9155
ult	-9156
▁巴勒斯坦	-9157
▁HT	-9158
▁生意	-9159
▁拉丁语	-9160
多年	-9161
自由	-9162
▁市级	-9163
▁探讨	-9164
▁赋予	-9165
▁ö	-9166
▁专线	-9167
▁鱼体	-9168
▁袁世凯	-9169
▁一万	-9170
▁网民	-9171
▁共和党	-9172
蜘蛛	-9173
母舰	-9174
▁航空母舰	-9175
▁埼	-9176
伦堡	-9177
▁属性	-9178
▁蝙蝠	-9179
▁1899	-9180
▁克尔	-9181
▁日益	-9182
▁出品	-9183
▁哲学家	-9184
▁总书记	-9185
▁率先	-9186
▁过后	-9187
▁240	-9188
▁BBC	-9189
▁替换	-9190
▁金钱	-9191
▁共青	-9192
▁降级	-9193
规则	-9194
▁Sw	-9195
▁艰	-9196
▁奉命	-9197
▁於	-9198
ual	-9199
▁屋苑	-9200
▁缩短	-9201
▁频繁	-9202
▁YouT	-9203
▁幸存	-9204
▁CS	-9205
▁哈萨	-9206
▁甲壳	-9207
▁短片	-9208
▁开发区	-9209
▁市委书记	-9210
▁霍夫	-9211
▁栋	-9212
▁废弃	-9213
▁港元	-9214
▁登山	-9215
▁维亚	-9216
IP	-9217
▁冥	-9218
▁流体	-9219
▁哭	-9220
▁东晋	-9221
▁金马	-9222
▁一连	-9223
▁打入	-9224
▁结论	-9225
罗马	-9226
▁先驱	-9227
▁应当	-9228
▁Int	-9229
▁自由党	-9230
ouse	-9231
▁狩	-9232
▁肠	-9233
▁不佳	-9234
▁藏传佛教	-9235
▁二十三年	-9236
▁束	-9237
▁航海	-9238
▁渤	-9239
▁专栏	-9240
▁共享	-9241
▁拓扑	-9242
▁诸如	-9243
▁南韩	-9244
▁窗口	-9245
▁花费	-9246
OL	-9247
▁骆	-9248
▁加密	-9249
▁战队	-9250
▁畅销	-9251
▁远征	-9252
▁门下	-9253
▁Ste	-9254
▁台大	-9255
▁逃离	-9256
▁部下	-9257
▁迈克尔	-9258
▁汉朝	-9259
▁红旗	-9260
ax	-9261
▁二等	-9262
▁崇拜	-9263
▁立委	-9264
▁字子	-9265
▁摩洛	-9266
▁置于	-9267
几内亚	-9268
▁意味着	-9269
▁公平	-9270
▁大韩	-9271
▁中日	-9272
▁内陆	-9273
▁归属	-9274
▁斯图	-9275
▁歌舞	-9276
▁摘	-9277
▁卢卡	-9278
▁格勒	-9279
▁终结	-9280
▁预防	-9281
▁卤	-9282
▁移植	-9283
▁朝鲜民主主义	-9284
▁朝鲜民主主义人民共和国	-9285
▁sp	-9286
▁拉克	-9287
▁连锁	-9288
▁丹尼尔	-9289
▁武田	-9290
▁圣彼得	-9291
▁年轻人	-9292
▁窝	-9293
▁第一张	-9294
55	-9295
▁渗	-9296
▁愤怒	-9297
▁亿港元	-9298
▁付费	-9299
▁金星	-9300
▁大韩民国	-9301
▁侍中	-9302
▁入狱	-9303
▁回复	-9304
▁德州	-9305
▁毫无	-9306
▁不利	-9307
▁北条	-9308
▁布罗	-9309
▁沦	-9310
▁卜	-9311
▁盈	-9312
ict	-9313
▁释出	-9314
▁乒乓球	-9315
▁口号	-9316
黄色	-9317
▁配音员	-9318
▁马达加	-9319
▁治理	-9320
▁哈佛大学	-9321
▁每月	-9322
撒冷	-9323
▁借用	-9324
▁背后	-9325
路撒冷	-9326
▁一件	-9327
▁师从	-9328
▁蜘蛛	-9329
▁马达加斯加	-9330
▁砍	-9331
▁告示	-9332
▁学系	-9333
▁西站	-9334
▁培育	-9335
▁子孙	-9336
▁木星	-9337
▁机身	-9338
▁英寸	-9339
▁开发者	-9340
▁奥克	-9341
▁珠海	-9342
▁Ind	-9343
DP	-9344
▁庵	-9345
▁蔬	-9346
▁诠	-9347
▁可汗	-9348
▁装有	-9349
▁并称	-9350
▁1.7	-9351
▁啦	-9352
▁概率	-9353
▁铭	-9354
▁前面	-9355
▁尊重	-9356
▁紧密	-9357
▁长时间	-9358
▁水泥	-9359
▁外交官	-9360
▁大学士	-9361
▁一班	-9362
▁冷却	-9363
▁所用	-9364
▁政委	-9365
▁欣赏	-9366
▁港澳	-9367
▁紧张	-9368
▁雌性	-9369
▁风云	-9370
▁4.5	-9371
▁搭乘	-9372
▁星云	-9373
▁萨克森	-9374
▁Bo	-9375
▁度过	-9376
▁u	-9377
▁阜	-9378
▁倭	-9379
▁衙	-9380
▁划入	-9381
▁育有	-9382
▁Web	-9383
▁沉积	-9384
▁煤矿	-9385
德斯	-9386
▁通勤	-9387
▁4000	-9388
▁克雷	-9389
▁分店	-9390
▁进化	-9391
▁颅	-9392
▁巴哈	-9393
▁信用	-9394
▁法拉	-9395
复兴	-9396
▁完善	-9397
▁幼年	-9398
▁牡丹	-9399
▁副局长	-9400
▁直辖市	-9401
▁分割	-9402
▁宽度	-9403
▁高温	-9404
▁2.7	-9405
▁第二轮	-9406
▁乐坛	-9407
▁西斯	-9408
▁奖学金	-9409
▁外形	-9410
▁成名	-9411
▁Art	-9412
yl	-9413
▁禄	-9414
贷款	-9415
▁罪名	-9416
▁淳	-9417
出来	-9418
金属	-9419
▁人群	-9420
▁漆	-9421
aur	-9422
▁挖掘	-9423
▁陈列	-9424
▁兆	-9425
▁上场	-9426
▁惯例	-9427
▁该处	-9428
▁组成部分	-9429
▁曼联	-9430
▁赛会	-9431
▁2.8	-9432
▁会馆	-9433
▁太后	-9434
▁黄埔	-9435
▁成员国	-9436
▁穷	-9437
ius	-9438
▁地势	-9439
▁高等教育	-9440
▁潮州	-9441
▁占有	-9442
▁毁灭	-9443
▁Stud	-9444
▁William	-9445
▁寇	-9446
▁en	-9447
▁由该	-9448
▁埃斯	-9449
▁解体	-9450
▁野战	-9451
UC	-9452
▁112	-9453
▁罹	-9454
▁搭档	-9455
▁本质	-9456
▁林中	-9457
▁Je	-9458
▁参军	-9459
▁收录于	-9460
▁国会议员	-9461
▁萝	-9462
▁蜗	-9463
▁上校	-9464
▁地铁站	-9465
▁汕	-9466
▁匈奴	-9467
▁当晚	-9468
▁DS	-9469
▁醒	-9470
▁进驻	-9471
any	-9472
▁大堂	-9473
▁希伯	-9474
▁港铁	-9475
▁走廊	-9476
▁夺冠	-9477
▁深水	-9478
▁集会	-9479
▁第三名	-9480
德拉	-9481
牛斯	-9482
皇家	-9483
▁刊物	-9484
▁端点	-9485
▁比利牛斯	-9486
参谋	-9487
▁思考	-9488
▁2.1	-9489
▁狱	-9490
▁恐惧	-9491
▁阮福	-9492
oll	-9493
▁斯诺	-9494
▁玻利维亚	-9495
▁彩虹	-9496
▁最少	-9497
▁多位	-9498
▁师团	-9499
▁210	-9500
▁□	-9501
▁𫚥	-9502
▁东莞	-9503
▁平日	-9504
▁知名度	-9505
▁八路	-9506
▁器官	-9507
▁条纹	-9508
▁遗产	-9509
占庭	-9510
▁之地	-9511
▁二十四	-9512
▁拜占庭	-9513
理事	-9514
▁450	-9515
▁鞋	-9516
▁加勒比海	-9517
▁人有	-9518
▁同知	-9519
▁马鞍	-9520
▁受体	-9521
▁德甲	-9522
▁焦点	-9523
▁舟	-9524
▁驶	-9525
大楼	-9526
战队	-9527
▁新庄	-9528
▁半导体	-9529
▁对立	-9530
▁斑点	-9531
▁车次	-9532
▁元件	-9533
▁南宁	-9534
▁学园	-9535
▁每秒	-9536
▁说服	-9537
▁谓	-9538
▁交界处	-9539
▁支部	-9540
▁右侧	-9541
▁宾夕	-9542
▁GP	-9543
▁釜	-9544
▁就业	-9545
▁答应	-9546
▁安德烈	-9547
▁应用程序	-9548
▁文艺复兴	-9549
▁侏	-9550
▁颂	-9551
▁大兴	-9552
▁预告	-9553
▁玛丽亚	-9554
▁初次	-9555
▁1600	-9556
▁耶路撒冷	-9557
▁皮卡	-9558
▁奥斯曼帝国	-9559
TP	-9560
▁饼	-9561
▁产量	-9562
▁后勤	-9563
▁锥	-9564
▁爱好者	-9565
主演	-9566
常委	-9567
▁领衔主演	-9568
▁叠	-9569
▁小说家	-9570
▁介于	-9571
▁故乡	-9572
▁比亚	-9573
ject	-9574
▁动词	-9575
▁石刻	-9576
人民法院	-9577
▁实质	-9578
▁美食	-9579
▁风力	-9580
▁IN	-9581
▁落败	-9582
▁SC	-9583
▁电机	-9584
▁边疆	-9585
▁酱	-9586
▁Ass	-9587
▁Gen	-9588
▁询	-9589
外线	-9590
▁南阳	-9591
▁曼谷	-9592
▁香港岛	-9593
▁Colle	-9594
▁с	-9595
▁流行音乐	-9596
▁提倡	-9597
▁球衣	-9598
▁依旧	-9599
▁纳粹德国	-9600
功能	-9601
▁华裔	-9602
▁绰号	-9603
▁TO	-9604
▁松山	-9605
86	-9606
▁狐	-9607
▁告知	-9608
▁编程	-9609
▁费城	-9610
创作	-9611
▁贩售	-9612
▁速率	-9613
▁硅	-9614
ise	-9615
▁五大	-9616
▁借此	-9617
▁纳米	-9618
▁重要性	-9619
▁魔术	-9620
▁伊丽	-9621
▁利沃	-9622
▁职责	-9623
▁北欧	-9624
▁验证	-9625
▁扑	-9626
一度	-9627
ane	-9628
▁二号	-9629
▁企划	-9630
▁并不	-9631
▁单行本	-9632
▁结识	-9633
▁蔷	-9634
▁共用	-9635
▁对比	-9636
▁驻守	-9637
教师	-9638
▁务	-9639
▁润	-9640
▁地下铁	-9641
▁挥	-9642
▁全数	-9643
▁宗旨	-9644
▁自动车	-9645
小组	-9646
IF	-9647
水县	-9648
▁为何	-9649
▁光年	-9650
彻斯特	-9651
▁发言人	-9652
ebook	-9653
▁1880	-9654
na	-9655
▁扩充	-9656
▁键盘	-9657
假名	-9658
▁半年	-9659
ings	-9660
▁优异	-9661
▁促使	-9662
▁前夕	-9663
▁只会	-9664
▁故障	-9665
▁传入	-9666
▁同期	-9667
▁样本	-9668
▁格拉斯	-9669
▁交付	-9670
▁送往	-9671
▁郁	-9672
半球	-9673
▁230	-9674
gh	-9675
▁三等	-9676
▁怒	-9677
▁茎	-9678
▁大王	-9679
▁顾客	-9680
▁攻读	-9681
▁潮湿	-9682
▁按察使	-9683
▁史记	-9684
▁清廷	-9685
▁格罗	-9686
▁东经	-9687
▁水晶	-9688
膨胀	-9689
▁ST	-9690
▁不良	-9691
▁北韩	-9692
▁祥	-9693
▁渤海	-9694
▁趋势	-9695
▁布拉格	-9696
▁Team	-9697
▁办公厅	-9698
▁厅长	-9699
▁合资	-9700
▁居于	-9701
▁总数	-9702
▁民用	-9703
▁122	-9704
▁Mark	-9705
GA	-9706
海峡	-9707
▁伤亡	-9708
▁巴登	-9709
▁蜿	-9710
ype	-9711
▁利奥	-9712
▁支队	-9713
▁琼斯	-9714
▁2.6	-9715
▁前作	-9716
▁多家	-9717
▁2020	-9718
冲突	-9719
▁IB	-9720
▁东风	-9721
▁系列赛	-9722
兹省	-9723
▁带到	-9724
able	-9725
▁Nor	-9726
▁魅	-9727
塞拜	-9728
▁科学技术	-9729
▁咬	-9730
武器	-9731
▁北纬	-9732
▁看法	-9733
FC	-9734
▁な	-9735
▁赚	-9736
▁屏东	-9737
ition	-9738
▁世界遗产	-9739
▁二十一年	-9740
ola	-9741
▁Mc	-9742
▁伊利诺	-9743
▁Fr	-9744
▁军用	-9745
▁天地	-9746
▁教职	-9747
▁现行	-9748
▁1894	-9749
速度	-9750
工具	-9751
▁参政	-9752
▁西德	-9753
▁财团	-9754
▁共青团	-9755
▁Rec	-9756
▁诺曼	-9757
▁蜡	-9758
▁争论	-9759
▁几种	-9760
▁繁荣	-9761
▁拉丁文	-9762
▁Christ	-9763
▁邯	-9764
▁松江	-9765
▁摩洛哥	-9766
▁111	-9767
▁宾夕法	-9768
▁万立方米	-9769
ha	-9770
▁SH	-9771
国际	-9772
太祖	-9773
▁刷	-9774
▁击退	-9775
▁接驳	-9776
▁帖	-9777
▁毛利	-9778
lass	-9779
▁南区	-9780
▁滋	-9781
制度	-9782
▁里奇	-9783
▁巴布亚	-9784
▁格鲁吉亚	-9785
主席	-9786
▁欧美	-9787
▁き	-9788
▁浊	-9789
太平	-9790
▁名额	-9791
▁开拓	-9792
▁114	-9793
▁BR	-9794
▁外借	-9795
▁签下	-9796
▁而已	-9797
▁Mont	-9798
▁臭	-9799
▁实习	-9800
▁将来	-9801
▁房子	-9802
▁星光	-9803
▁二十四年	-9804
▁绳	-9805
▁水果	-9806
巴斯	-9807
什么	-9808
务段	-9809
▁可追	-9810
▁时报	-9811
▁挤	-9812
行动	-9813
.00	-9814
▁交会	-9815
▁六世	-9816
▁古罗马	-9817
▁YouTube	-9818
▁合共	-9819
▁监视	-9820
▁乌兹	-9821
▁景区	-9822
▁衣服	-9823
▁ま	-9824
▁围攻	-9825
▁此举	-9826
▁河川	-9827
▁职能	-9828
▁聘请	-9829
▁Geor	-9830
▁一门	-9831
▁喇嘛	-9832
▁秋季	-9833
▁克利	-9834
▁登录	-9835
▁终点站	-9836
▁圭	-9837
▁交由	-9838
▁晋国	-9839
▁磁场	-9840
▁好莱坞	-9841
▁总主教	-9842
IR	-9843
哈顿	-9844
▁外星	-9845
▁攻陷	-9846
▁蜿蜒	-9847
▁副司令	-9848
EE	-9849
▁tr	-9850
▁册封	-9851
▁左侧	-9852
▁礼仪	-9853
▁贯穿	-9854
▁保护区	-9855
垒打	-9856
▁收复	-9857
▁封锁	-9858
▁海关	-9859
▁齐国	-9860
▁最高法院	-9861
▁汶	-9862
多次	-9863
▁写道	-9864
▁塔拉	-9865
▁海滨	-9866
▁伊丽莎白	-9867
▁ラ	-9868
▁昏	-9869
▁洛夫	-9870
▁籍贯	-9871
▁马场	-9872
▁第十四	-9873
▁牟	-9874
▁家长	-9875
▁辛亥	-9876
▁钓鱼	-9877
▁鸦	-9878
▁有助	-9879
▁追赠	-9880
amb	-9881
▁医药	-9882
▁落后	-9883
▁高句	-9884
▁卡斯特	-9885
lo	-9886
为止	-9887
▁信义	-9888
▁取决	-9889
▁普通话	-9890
▁番茄	-9891
▁酒吧	-9892
▁阴谋	-9893
▁青衣	-9894
规划	-9895
▁万吨	-9896
▁别名	-9897
▁复仇	-9898
▁曼哈顿	-9899
▁英国皇家	-9900
▁リ	-9901
改革	-9902
▁南洋	-9903
▁还会	-9904
▁克里米亚	-9905
85	-9906
▁ト	-9907
▁娃	-9908
夫卡	-9909
而言	-9910
▁军政	-9911
▁风速	-9912
▁羟	-9913
ner	-9914
▁含义	-9915
▁家里	-9916
▁现金	-9917
▁腹足	-9918
▁贩卖	-9919
▁饲养	-9920
▁安葬	-9921
▁片中	-9922
▁可追溯	-9923
hem	-9924
▁灌溉	-9925
▁文书	-9926
▁锅	-9927
▁科斯	-9928
▁八路军	-9929
▁年份	-9930
▁季后赛	-9931
▁弗洛	-9932
▁集成	-9933
▁台北县	-9934
MP	-9935
▁尾巴	-9936
▁蔷薇	-9937
▁集资	-9938
▁Inst	-9939
察院	-9940
▁信托	-9941
▁单纯	-9942
▁及时	-9943
▁山村	-9944
▁笔记	-9945
党校	-9946
电脑	-9947
▁海德	-9948
▁第一轮	-9949
▁大学毕业	-9950
▁多少	-9951
▁院校	-9952
▁有线电视	-9953
▁余人	-9954
▁大地	-9955
▁转而	-9956
▁童年	-9957
▁下议院	-9958
▁乌拉圭	-9959
医学	-9960
▁此种	-9961
▁厌	-9962
▁深夜	-9963
▁克拉克	-9964
▁德克萨斯州	-9965
▁大阪府	-9966
▁褒	-9967
维吾尔	-9968
▁副会长	-9969
▁新疆维吾尔	-9970
▁113	-9971
▁巴伐利亚州	-9972
▁腿	-9973
▁四种	-9974
▁慢慢	-9975
▁利沃夫	-9976
▁烯	-9977
之战	-9978
▁上演	-9979
▁内斯	-9980
▁女士	-9981
▁金华	-9982
▁橄榄球	-9983
▁加里	-9984
▁相等	-9985
▁公务员	-9986
▁当地人	-9987
▁白垩纪	-9988
▁CO	-9989
▁住户	-9990
▁征召	-9991
▁攻克	-9992
▁询问	-9993
▁两家	-9994
▁接口	-9995
▁线上	-9996
▁补给	-9997
▁中央委员会	-9998
▁吉隆坡	-9999
▁堀	-10000
▁二十九年	-10001
▁和谐	-10002
▁彩色	-10003
▁轩	-10004
▁安妮	-10005
▁开除	-10006
▁耿	-10007
▁党组书记	-10008
▁弯曲	-10009
▁槟	-10010
▁丧失	-10011
▁卸任	-10012
▁新疆维吾尔自治区	-10013
▁庄园	-10014
▁放映	-10015
▁狭窄	-10016
▁皇子	-10017
VA	-10018
que	-10019
▁保守党	-10020
▁驻扎	-10021
▁•	-10022
▁千万	-10023
▁车身	-10024
▁铜锣	-10025
▁Star	-10026
▁り	-10027
▁拉脱	-10028
▁统称	-10029
▁太阳系	-10030
ke	-10031
ike	-10032
▁内务	-10033
▁结局	-10034
▁单曲榜	-10035
▁拉脱维亚	-10036
▁勇士	-10037
▁断层	-10038
▁明尼	-10039
▁取决于	-10040
▁敕	-10041
▁不愿	-10042
▁中路	-10043
▁卫冕	-10044
▁四位	-10045
▁采集	-10046
▁香港大学	-10047
ett	-10048
▁寿命	-10049
▁打进	-10050
▁护理	-10051
▁百合	-10052
acebook	-10053
▁杀手	-10054
▁背部	-10055
▁俯	-10056
▁仓库	-10057
▁赔偿	-10058
▁辽东	-10059
▁看起来	-10060
▁愉	-10061
▁春季	-10062
▁十九年	-10063
▁小岛	-10064
▁引导	-10065
▁т	-10066
▁步骤	-10067
▁自幼	-10068
▁僵	-10069
▁镶嵌	-10070
▁社会科学	-10071
▁曾多次	-10072
吉斯	-10073
der	-10074
▁偶尔	-10075
▁罗德	-10076
▁万年前	-10077
co	-10078
▁宗座	-10079
▁宦官	-10080
▁密集	-10081
▁巴里	-10082
▁汉口	-10083
▁TH	-10084
▁哺乳动物	-10085
▁Av	-10086
▁修行	-10087
▁卡罗	-10088
▁供电	-10089
▁地狱	-10090
▁高句丽	-10091
梅尔	-10092
▁一子	-10093
▁杏	-10094
▁1800	-10095
象棋	-10096
▁业者	-10097
▁特鲁	-10098
▁胚	-10099
▁全垒打	-10100
▁阿波罗	-10101
▁with	-10102
▁意指	-10103
▁马尼	-10104
▁歼	-10105
建设	-10106
▁We	-10107
▁真相	-10108
▁被告	-10109
▁中西部	-10110
▁No	-10111
▁博尔	-10112
▁等价	-10113
▁赛道	-10114
▁Exp	-10115
▁戏院	-10116
▁接手	-10117
▁集结	-10118
▁合唱团	-10119
▁理查德	-10120
aster	-10121
▁三重	-10122
▁伺服	-10123
▁替补	-10124
▁中国政府	-10125
▁SD	-10126
▁不合	-10127
▁铁路线	-10128
▁位列	-10129
▁豪华	-10130
▁办学	-10131
▁富豪	-10132
▁色情	-10133
▁说话	-10134
▁出租	-10135
▁数次	-10136
▁褐色	-10137
▁之乱	-10138
▁日以	-10139
▁西山	-10140
▁里夫	-10141
原子	-10142
▁全身	-10143
▁域名	-10144
▁根据地	-10145
▁战国时代	-10146
▁五人	-10147
▁原为	-10148
▁合理	-10149
▁蜗牛	-10150
ream	-10151
▁人大常委会	-10152
之处	-10153
box	-10154
▁维特	-10155
▁菲尔	-10156
▁浴	-10157
▁列斯	-10158
▁UTC	-10159
▁David	-10160
▁祁	-10161
fer	-10162
▁碰撞	-10163
▁莱特	-10164
▁工作者	-10165
59	-10166
▁倾斜	-10167
▁哥特	-10168
▁家属	-10169
▁显得	-10170
塔基	-10171
▁奠定	-10172
▁树林	-10173
物质	-10174
▁用地	-10175
▁阵容	-10176
▁希特勒	-10177
▁噪	-10178
▁大火	-10179
▁战机	-10180
▁汉人	-10181
▁直流	-10182
▁荧幕	-10183
▁足以	-10184
▁迁居	-10185
▁依次	-10186
▁精英	-10187
ka	-10188
▁笃	-10189
▁塔斯	-10190
▁人造	-10191
▁原定	-10192
▁特尔	-10193
▁真空	-10194
▁迁徙	-10195
▁1871	-10196
▁爸	-10197
▁伯格	-10198
▁合称	-10199
科文	-10200
▁中队	-10201
▁四国	-10202
▁菲尔德	-10203
ral	-10204
iver	-10205
▁1860	-10206
▁尉	-10207
▁掌管	-10208
▁超人	-10209
▁种种	-10210
▁公共交通	-10211
oss	-10212
▁可行	-10213
▁民生	-10214
▁Paul	-10215
▁两端	-10216
▁射手	-10217
▁损害	-10218
▁影评人	-10219
多夫	-10220
▁正选	-10221
▁总公司	-10222
▁茄	-10223
▁清晰	-10224
▁铁线	-10225
▁在此之	-10226
▁缔	-10227
▁拿到	-10228
▁故意	-10229
▁云林县	-10230
▁记忆体	-10231
▁Em	-10232
▁年均	-10233
▁明清	-10234
▁法规	-10235
▁证书	-10236
▁辩论	-10237
▁都统	-10238
▁多媒体	-10239
▁公孙	-10240
▁提案	-10241
▁1.9	-10242
▁Sou	-10243
▁中视	-10244
▁人马	-10245
▁年春	-10246
▁该堂	-10247
▁坐落于	-10248
流量	-10249
▁全市	-10250
▁味道	-10251
▁妈祖	-10252
▁抽象	-10253
▁料理	-10254
▁1885	-10255
▁孟加拉国	-10256
▁堕	-10257
安市	-10258
▁侦探	-10259
▁拼音	-10260
三角	-10261
故事	-10262
▁习俗	-10263
▁追踪	-10264
▁挽	-10265
▁狙	-10266
梅利	-10267
▁中超	-10268
▁石灰	-10269
▁怪物	-10270
▁汗国	-10271
cm	-10272
▁启发	-10273
▁暴动	-10274
全书	-10275
西比	-10276
▁分发	-10277
▁榴弹	-10278
▁艾尔	-10279
▁高出	-10280
▁280	-10281
▁卢森堡	-10282
▁黎明	-10283
▁水源	-10284
▁现名	-10285
▁巡回演唱	-10286
▁哈萨克斯坦	-10287
石器	-10288
▁亚太	-10289
▁险	-10290
耳曼	-10291
▁台视	-10292
▁所说	-10293
▁栗	-10294
ior	-10295
▁隐居	-10296
▁民族主义	-10297
▁跌	-10298
▁影集	-10299
▁最先	-10300
▁自立	-10301
▁西蒙	-10302
▁烤	-10303
▁业界	-10304
▁暴露	-10305
▁流入	-10306
▁武汉市	-10307
▁冲锋	-10308
▁各式	-10309
▁旺角	-10310
▁站名	-10311
▁讲座	-10312
▁哈尔科夫	-10313
大略	-10314
林斯	-10315
▁备受	-10316
▁贝拉	-10317
▁迎接	-10318
▁系主任	-10319
▁System	-10320
▁分泌	-10321
▁阿德	-10322
▁3.1	-10323
▁黔	-10324
▁同事	-10325
▁星球	-10326
▁追随	-10327
▁工业区	-10328
▁1870	-10329
▁蛙	-10330
加索	-10331
ael	-10332
▁投入使用	-10333
▁国歌	-10334
▁演技	-10335
▁叉	-10336
▁驿	-10337
▁摩托	-10338
▁收回	-10339
▁组件	-10340
▁违法	-10341
ino	-10342
▁be	-10343
▁参议	-10344
▁处女	-10345
▁纵队	-10346
▁英国人	-10347
▁上车	-10348
▁党籍	-10349
▁分行	-10350
▁翌日	-10351
▁Bla	-10352
▁希伯来	-10353
▁染色体	-10354
ru	-10355
▁三维	-10356
射线	-10357
▁土木	-10358
▁有趣	-10359
ella	-10360
▁Pol	-10361
▁日本帝国	-10362
分析	-10363
.5%	-10364
▁介入	-10365
▁史书	-10366
▁司长	-10367
▁副教授	-10368
▁代谢	-10369
▁公使	-10370
▁垄	-10371
▁天堂	-10372
▁科特	-10373
▁翻唱	-10374
西州	-10375
▁民航	-10376
▁多夫	-10377
▁住宅区	-10378
▁怡	-10379
▁定名	-10380
▁日内	-10381
▁抬	-10382
▁闰	-10383
纳尔	-10384
将军	-10385
▁迁入	-10386
▁第三代	-10387
▁奉天	-10388
▁案例	-10389
▁田中	-10390
▁科普	-10391
▁翻新	-10392
▁马路	-10393
▁扳	-10394
▁谐	-10395
▁光线	-10396
▁等同	-10397
▁藏书	-10398
▁新干线	-10399
▁诬	-10400
ene	-10401
▁偏东	-10402
▁宠物	-10403
▁彝	-10404
▁外来	-10405
▁狸	-10406
酋长	-10407
▁伯恩	-10408
▁肿瘤	-10409
联合会	-10410
▁肋	-10411
▁内存	-10412
▁强迫	-10413
▁道歉	-10414
族自治州	-10415
选举	-10416
▁叶子	-10417
▁波特	-10418
▁省会	-10419
▁钟楼	-10420
太平洋	-10421
▁安大略	-10422
▁北上	-10423
▁远离	-10424
▁Min	-10425
▁复出	-10426
▁大概	-10427
▁Live	-10428
▁浑	-10429
▁撤离	-10430
▁烧毁	-10431
▁被判	-10432
▁岐	-10433
▁斥	-10434
多瓦	-10435
ery	-10436
▁童军	-10437
▁磡	-10438
苏里	-10439
▁负面	-10440
▁珊瑚礁	-10441
▁青岛市	-10442
▁之初	-10443
▁僧人	-10444
▁妥	-10445
▁双重	-10446
▁秦国	-10447
▁话题	-10448
▁总统府	-10449
▁ES	-10450
▁鹅	-10451
▁毒性	-10452
▁省长	-10453
▁十余	-10454
▁接待	-10455
▁天然气	-10456
▁市政厅	-10457
▁附加赛	-10458
▁Girl	-10459
▁ジ	-10460
▁君士	-10461
▁攻下	-10462
▁新宿	-10463
▁1886	-10464
达尔	-10465
▁教室	-10466
▁盛行	-10467
▁长寿	-10468
▁an	-10469
▁制备	-10470
▁摩泽尔	-10471
▁朱元	-10472
▁3.0	-10473
▁书中	-10474
▁初始	-10475
▁非正	-10476
▁闹	-10477
▁管道	-10478
▁转播	-10479
▁117	-10480
▁Off	-10481
▁暹	-10482
▁硬件	-10483
▁饮料	-10484
▁最强	-10485
电站	-10486
▁卓越	-10487
▁河水	-10488
▁渭	-10489
▁东至	-10490
▁住房	-10491
▁硬币	-10492
▁融入	-10493
▁260	-10494
▁神奈川县	-10495
▁里亚	-10496
产业	-10497
北克	-10498
▁外语	-10499
▁Robert	-10500
▁园林	-10501
▁飘	-10502
吉尔	-10503
▁幕后	-10504
▁灾难	-10505
▁生理	-10506
▁雷诺	-10507
IL	-10508
▁逃往	-10509
▁聊	-10510
▁苑	-10511
▁专属	-10512
▁新罗	-10513
▁春天	-10514
▁123	-10515
就是	-10516
▁停办	-10517
▁小提琴	-10518
特区	-10519
足球	-10520
▁向西	-10521
▁平壤	-10522
▁行使	-10523
▁社会党	-10524
▁一中	-10525
▁林肯	-10526
▁监管	-10527
▁116	-10528
▁檀	-10529
▁不列颠	-10530
▁反对派	-10531
▁兖	-10532
百科	-10533
▁协商	-10534
▁记述	-10535
▁那时	-10536
▁Air	-10537
OW	-10538
俄比亚	-10539
▁魁北克	-10540
▁埃塞俄比亚	-10541
▁懂	-10542
▁葡萄酒	-10543
达科	-10544
▁乐曲	-10545
▁弹性	-10546
▁蔬菜	-10547
▁梧	-10548
▁间谍	-10549
▁内尔	-10550
▁斯卡	-10551
▁时为	-10552
▁行省	-10553
▁鉴定	-10554
▁敲	-10555
ero	-10556
▁一句	-10557
▁吸血	-10558
▁炮台	-10559
let	-10560
▁曝光	-10561
▁滥	-10562
▁中是	-10563
▁公会	-10564
▁学部	-10565
▁辅导	-10566
▁阿姆斯特	-10567
▁回收	-10568
▁索马	-10569
▁莱尔	-10570
▁逊	-10571
▁防护	-10572
绿色	-10573
▁一枚	-10574
▁不丹	-10575
▁宣统	-10576
▁此一	-10577
▁制片人	-10578
▁军中	-10579
▁蒙古国	-10580
DA	-10581
100	-10582
▁div	-10583
▁It	-10584
▁上书	-10585
▁南开	-10586
▁消耗	-10587
▁血管	-10588
▁く	-10589
▁泗	-10590
▁畜	-10591
▁万余	-10592
▁狙击	-10593
▁首长	-10594
▁Mod	-10595
▁ä	-10596
▁原产	-10597
▁土著	-10598
▁瓦斯	-10599
▁质子	-10600
▁史蒂芬	-10601
▁High	-10602
▁沙滩	-10603
▁科夫	-10604
▁中美洲	-10605
▁烂	-10606
▁瓷	-10607
▁像素	-10608
▁状元	-10609
▁贫困	-10610
▁亿年	-10611
▁吐蕃	-10612
▁潜在	-10613
▁高压	-10614
▁扰	-10615
▁委员长	-10616
▁矣	-10617
总杯	-10618
腾堡	-10619
▁神像	-10620
▁研究者	-10621
▁第一座	-10622
▁大正	-10623
▁将近	-10624
▁湿润	-10625
▁泳	-10626
▁气温	-10627
▁в	-10628
▁乌兹别	-10629
▁明末	-10630
▁维勒	-10631
▁杰克逊	-10632
危机	-10633
▁一步	-10634
▁碳酸	-10635
▁州立大学	-10636
▁应用程式	-10637
▁仆	-10638
▁侵蚀	-10639
▁共识	-10640
▁重叠	-10641
▁石家庄	-10642
▁专题	-10643
▁两边	-10644
▁橡胶	-10645
▁洛斯	-10646
▁火炮	-10647
▁石勒	-10648
▁马匹	-10649
▁骗	-10650
▁传动	-10651
▁助手	-10652
▁警备	-10653
.4%	-10654
▁别的	-10655
▁放大	-10656
▁温州	-10657
▁西湖	-10658
▁嘉定	-10659
▁库容	-10660
▁战事	-10661
▁Res	-10662
▁Wal	-10663
▁足总杯	-10664
mun	-10665
▁斯科特	-10666
▁新竹县	-10667
▁Su	-10668
▁一行	-10669
▁告示牌	-10670
▁建筑群	-10671
▁篮球队	-10672
▁东正	-10673
▁乃至	-10674
▁易名	-10675
▁渔业	-10676
ki	-10677
▁东山	-10678
▁拉尔	-10679
▁1892	-10680
▁淑	-10681
▁马萨	-10682
▁日月	-10683
▁指挥部	-10684
▁崖	-10685
▁藉	-10686
▁UN	-10687
▁典礼	-10688
▁圣安	-10689
▁羽联	-10690
▁冶	-10691
▁分会	-10692
▁收获	-10693
▁给定	-10694
▁一方面	-10695
▁醇	-10696
木齐	-10697
chn	-10698
▁仅存	-10699
▁最快	-10700
▁首场	-10701
▁肯塔基	-10702
务局	-10703
.62	-10704
▁总领	-10705
▁招募	-10706
▁斯大	-10707
▁治安	-10708
▁海姆	-10709
▁娄	-10710
▁学说	-10711
▁疯狂	-10712
▁嘉兴	-10713
▁过往	-10714
▁东正教	-10715
▁材	-10716
▁Can	-10717
▁日本政府	-10718
协议	-10719
▁助攻	-10720
▁埃德	-10721
▁安哥	-10722
▁延迟	-10723
▁诗集	-10724
▁朱元璋	-10725
▁资格赛	-10726
▁舱	-10727
巴嫩	-10728
▁BM	-10729
▁修筑	-10730
▁右翼	-10731
▁剌	-10732
小平	-10733
▁At	-10734
▁曾孙	-10735
▁作业系统	-10736
▁绝大多数	-10737
EL	-10738
二世	-10739
资料	-10740
▁圣地	-10741
▁6.5	-10742
▁by	-10743
▁一集	-10744
▁留守	-10745
▁师范学院	-10746
▁情人	-10747
▁搜寻	-10748
▁绑架	-10749
▁探测器	-10750
▁满洲国	-10751
迪斯	-10752
▁圣人	-10753
▁缺点	-10754
▁擦	-10755
▁唱歌	-10756
▁第三届	-10757
▁厕	-10758
▁干事	-10759
▁新秀	-10760
▁神户	-10761
▁预言	-10762
▁さ	-10763
▁表彰	-10764
中正	-10765
大陆	-10766
.25	-10767
▁买下	-10768
▁科隆	-10769
出版社	-10770
▁殊	-10771
▁驳	-10772
金斯	-10773
▁林业	-10774
▁猎人	-10775
▁第三个	-10776
89	-10777
▁辟	-10778
▁史迹	-10779
▁奥托	-10780
▁长崎	-10781
▁害怕	-10782
▁天主教会	-10783
▁余下	-10784
▁监禁	-10785
▁万英镑	-10786
▁〜	-10787
▁黛	-10788
现代	-10789
▁努尔	-10790
▁贷款	-10791
clude	-10792
▁乌鲁木齐	-10793
灵顿	-10794
▁例外	-10795
▁地标	-10796
▁外表	-10797
▁萌	-10798
▁谴	-10799
enc	-10800
▁关卡	-10801
▁台语	-10802
▁太和	-10803
▁左岸	-10804
▁音乐剧	-10805
▁黎巴嫩	-10806
自然	-10807
air	-10808
▁全家	-10809
▁县市	-10810
▁基层	-10811
▁契丹	-10812
▁学员	-10813
▁隔年	-10814
▁Red	-10815
农业	-10816
卫视	-10817
▁三段	-10818
▁大殿	-10819
▁客户端	-10820
▁屠杀	-10821
▁缺陷	-10822
▁Val	-10823
▁瞬	-10824
▁DD	-10825
▁非裔	-10826
就是说	-10827
▁君士坦	-10828
▁柔道	-10829
▁神庙	-10830
▁斯大林	-10831
▁时空	-10832
▁这么	-10833
iro	-10834
▁优点	-10835
▁提督	-10836
▁西晋	-10837
▁淹	-10838
▁间隔	-10839
▁一连串	-10840
▁大都会	-10841
▁维吉尼亚	-10842
▁ク	-10843
▁养子	-10844
▁在校	-10845
▁推举	-10846
▁爱知	-10847
▁高斯	-10848
▁法兰克福	-10849
▁口岸	-10850
▁大法	-10851
▁巡回赛	-10852
▁te	-10853
▁化学家	-10854
▁Group	-10855
▁伐	-10856
▁卡通	-10857
▁坑壁	-10858
▁1888	-10859
▁刻有	-10860
▁缩小	-10861
▁动物园	-10862
▁看台	-10863
▁淮南	-10864
▁重伤	-10865
▁欢乐	-10866
▁白金	-10867
▁刘备	-10868
▁报名	-10869
▁星座	-10870
aj	-10871
▁蒋中正	-10872
迪亚	-10873
▁卫斯	-10874
▁双人	-10875
▁敷	-10876
▁注重	-10877
▁л	-10878
ital	-10879
de	-10880
▁填词	-10881
▁阿卜	-10882
▁鞭	-10883
▁奠基	-10884
▁爪哇	-10885
▁同月	-10886
▁见面	-10887
▁淋	-10888
▁窄	-10889
▁罗杰	-10890
▁美国陆军	-10891
起义	-10892
▁庄为	-10893
▁归国	-10894
▁物件	-10895
▁东边	-10896
▁以致	-10897
▁反击	-10898
▁内政部	-10899
▁中旬	-10900
▁乌兰	-10901
▁公理	-10902
▁到来	-10903
▁北齐	-10904
▁致使	-10905
▁み	-10906
▁动员	-10907
▁在职	-10908
▁温和	-10909
蒙德	-10910
▁Jo	-10911
▁札幌	-10912
▁般的	-10913
▁海军陆	-10914
▁菱	-10915
▁轿	-10916
▁演绎	-10917
▁痛苦	-10918
▁破产	-10919
▁埤	-10920
▁女友	-10921
▁尾鳍	-10922
▁安哥拉	-10923
▁基部	-10924
▁挑选	-10925
▁涡轮	-10926
▁阵营	-10927
▁Lim	-10928
▁圣彼得堡	-10929
柏林	-10930
▁ar	-10931
▁as	-10932
▁党内	-10933
▁聚居	-10934
▁祈祷	-10935
▁有期徒刑	-10936
▁巴利	-10937
▁海战	-10938
▁Bro	-10939
▁亚运会	-10940
周年	-10941
▁弹匣	-10942
▁正当	-10943
▁贝斯	-10944
▁村委会	-10945
▁タ	-10946
▁些	-10947
多尔	-10948
易斯	-10949
▁偏南	-10950
▁扩散	-10951
达科他州	-10952
▁国际象棋	-10953
▁苻	-10954
基亚	-10955
编辑	-10956
▁汇入	-10957
▁王家	-10958
erg	-10959
▁两度	-10960
▁游击队	-10961
▁原生	-10962
▁环状	-10963
▁约旦	-10964
rat	-10965
▁人选	-10966
▁分出	-10967
▁豆科	-10968
▁Pe	-10969
▁巴比	-10970
▁话剧	-10971
ute	-10972
▁鹦鹉	-10973
▁其次	-10974
▁喷发	-10975
▁日间	-10976
▁珠江	-10977
▁阿塞拜	-10978
▁Cent	-10979
▁分辨	-10980
▁沿途	-10981
▁草案	-10982
▁马赛	-10983
▁sur	-10984
▁砌	-10985
务院	-10986
ena	-10987
▁梅花	-10988
▁灯塔	-10989
▁分组赛	-10990
▁擒	-10991
▁瑜	-10992
▁多达	-10993
▁心中	-10994
▁操纵	-10995
政治局	-10996
ricon	-10997
▁NC	-10998
▁三间	-10999
▁会以	-11000
▁方济	-11001
▁二十六年	-11002
sc	-11003
▁哈萨克	-11004
▁音乐学院	-11005
特里	-11006
▁反复	-11007
▁奥德	-11008
▁香港中文	-11009
方程	-11010
▁善于	-11011
▁官兵	-11012
▁戏曲	-11013
▁损坏	-11014
▁无数	-11015
▁负担	-11016
▁骏	-11017
▁怎么	-11018
▁拉格	-11019
▁警务	-11020
▁达斯	-11021
▁利比亚	-11022
▁嘉义县	-11023
▁北周	-11024
▁插入	-11025
▁分公司	-11026
▁海岸线	-11027
丽鱼	-11028
▁完毕	-11029
▁丞相	-11030
▁变动	-11031
▁拓展	-11032
▁率部	-11033
▁有所不同	-11034
▁伏尔	-11035
▁假期	-11036
▁空难	-11037
▁罗曼	-11038
四军	-11039
美奖	-11040
▁有功	-11041
▁维斯	-11042
▁铁道部	-11043
奥会	-11044
▁不够	-11045
▁双层	-11046
▁拳击	-11047
▁Oricon	-11048
▁媒	-11049
▁秃	-11050
.9%	-11051
▁标注	-11052
▁职工	-11053
▁127	-11054
▁清洁	-11055
▁片尾	-11056
▁获颁	-11057
▁记者会	-11058
▁阿塞拜疆	-11059
▁关西	-11060
▁出名	-11061
▁就此	-11062
▁直达	-11063
▁采购	-11064
▁师范大学	-11065
.3%	-11066
▁利夫	-11067
▁开元	-11068
▁报复	-11069
ines	-11070
▁缝	-11071
▁衞	-11072
程序	-11073
▁全民	-11074
▁干涉	-11075
▁缘故	-11076
化合物	-11077
▁Ang	-11078
▁析	-11079
诸塞	-11080
▁无穷	-11081
▁к	-11082
▁代言	-11083
▁写下	-11084
▁墨尔	-11085
▁幼儿	-11086
▁应对	-11087
▁老虎	-11088
族自治县	-11089
▁船舶	-11090
▁重型	-11091
▁壹	-11092
▁犀	-11093
▁堡垒	-11094
▁生平	-11095
▁艺员	-11096
▁长途	-11097
▁杭州市	-11098
▁省政府	-11099
利安	-11100
▁SO	-11101
位置	-11102
▁行程	-11103
▁中子	-11104
▁营造	-11105
▁阿勒	-11106
▁教育家	-11107
▁http	-11108
秀吉	-11109
▁考证	-11110
▁相互作用	-11111
▁Sa	-11112
▁三座	-11113
▁厄瓜	-11114
▁名将	-11115
▁Gl	-11116
▁Mat	-11117
▁碗	-11118
▁陡	-11119
rop	-11120
▁开出	-11121
▁盖尔	-11122
▁伺服器	-11123
▁外型	-11124
▁峡谷	-11125
▁见证	-11126
▁东西向	-11127
▁亚特兰	-11128
▁弗里德里	-11129
▁li	-11130
▁不错	-11131
▁玉米	-11132
科文组织	-11133
▁熙	-11134
▁碟	-11135
▁虔	-11136
lic	-11137
▁升班	-11138
▁罗宾	-11139
▁320	-11140
▁威尔士	-11141
53	-11142
▁亮度	-11143
▁庇护	-11144
▁比特	-11145
▁石碑	-11146
▁简易	-11147
▁罗夫	-11148
▁门外	-11149
▁二次大战	-11150
▁蔓	-11151
▁八一	-11152
▁尔德	-11153
▁查询	-11154
▁法军	-11155
▁短篇	-11156
▁佛罗伦	-11157
▁μ	-11158
普森	-11159
▁EX	-11160
▁介面	-11161
▁第二位	-11162
人知	-11163
ree	-11164
▁碎片	-11165
▁不远	-11166
▁121	-11167
▁巴拉圭	-11168
▁也就是说	-11169
▁水准	-11170
▁Alex	-11171
▁朝日	-11172
▁样式	-11173
▁流程	-11174
▁遇难	-11175
▁采纳	-11176
▁脊椎动物	-11177
▁慰	-11178
效力	-11179
▁一战	-11180
▁公认	-11181
▁既有	-11182
▁锐	-11183
▁二期	-11184
▁未经	-11185
▁福德	-11186
▁苏拉	-11187
锦赛	-11188
▁修缮	-11189
▁对战	-11190
ology	-11191
▁马克思主义	-11192
56	-11193
▁耀	-11194
▁乘降	-11195
▁路面	-11196
▁卫斯理	-11197
▁1884	-11198
▁爸爸	-11199
▁管弦	-11200
▁螺科	-11201
▁受害者	-11202
▁平假名	-11203
▁National	-11204
▁为界	-11205
▁郡王	-11206
▁预赛	-11207
▁研究会	-11208
▁华丽	-11209
▁率兵	-11210
▁白云	-11211
▁冻	-11212
▁腔	-11213
▁内外	-11214
▁复数	-11215
▁晶片	-11216
▁CN	-11217
▁语系	-11218
▁赴美	-11219
▁门将	-11220
▁县政府	-11221
▁亚尔	-11222
▁会堂	-11223
▁枢密	-11224
▁潜水	-11225
▁狩猎	-11226
▁科举	-11227
▁邪恶	-11228
ave	-11229
▁继母	-11230
▁研究室	-11231
▁各界	-11232
▁开采	-11233
▁服饰	-11234
▁椭圆形	-11235
▁冠军联赛	-11236
▁韶	-11237
.7%	-11238
▁三菱	-11239
▁亚斯	-11240
port	-11241
▁副校长	-11242
▁纲脂	-11243
▁送给	-11244
▁戴维斯	-11245
▁投资者	-11246
▁誓	-11247
调查	-11248
▁不及	-11249
▁分手	-11250
▁宝石	-11251
▁商学院	-11252
▁洁	-11253
▁你们	-11254
▁陈氏	-11255
体中文	-11256
▁1893	-11257
88	-11258
认为	-11259
▁下旬	-11260
▁县委	-11261
▁恶化	-11262
▁荷尔	-11263
▁页面	-11264
▁孢	-11265
博士	-11266
▁中型	-11267
▁冬天	-11268
▁招生	-11269
▁激进	-11270
▁英冠	-11271
▁养殖	-11272
▁支配	-11273
▁终年	-11274
▁144	-11275
▁始祖	-11276
▁不必	-11277
▁主线	-11278
▁接到	-11279
▁罪行	-11280
▁鲤齿	-11281
▁124	-11282
▁第一期	-11283
▁中央委员	-11284
▁襄阳	-11285
▁县份	-11286
▁巴林	-11287
▁快车	-11288
▁文档	-11289
▁比起	-11290
▁筹建	-11291
▁San	-11292
麦隆	-11293
ole	-11294
▁赏识	-11295
way	-11296
▁塞拉	-11297
▁守门	-11298
▁层面	-11299
▁寡	-11300
▁暱	-11301
形态	-11302
▁1887	-11303
事件	-11304
▁民俗	-11305
▁腓特	-11306
▁旅馆	-11307
▁阿列	-11308
▁750	-11309
▁学家	-11310
▁无机	-11311
▁释迦	-11312
▁一般来说	-11313
▁武力	-11314
▁诈	-11315
▁王府	-11316
▁结晶	-11317
▁颅骨	-11318
▁香港中文大学	-11319
.6%	-11320
▁巡逻	-11321
▁歧视	-11322
▁甲壳类	-11323
▁第一家	-11324
▁世家	-11325
▁尔特	-11326
▁摄影师	-11327
▁京城	-11328
▁Mor	-11329
▁第二天	-11330
tainment	-11331
▁峨	-11332
.8%	-11333
▁敌军	-11334
▁生殖	-11335
▁落实	-11336
▁Park	-11337
▁海军陆战队	-11338
▁歇	-11339
▁Bu	-11340
▁师长	-11341
▁笛	-11342
▁腺	-11343
▁芯	-11344
▁责	-11345
▁Fe	-11346
▁开头	-11347
▁Eng	-11348
▁〔	-11349
▁冢	-11350
森州	-11351
▁华纳	-11352
▁大专	-11353
▁巨星	-11354
▁统领	-11355
▁赫梅利	-11356
▁华中	-11357
▁考量	-11358
▁转运	-11359
▁遵守	-11360
▁有时候	-11361
▁溴	-11362
▁法人	-11363
▁配角	-11364
▁贼	-11365
ham	-11366
▁IT	-11367
▁世袭	-11368
▁二千	-11369
▁煤炭	-11370
▁现址	-11371
▁追击	-11372
▁邑	-11373
▁133	-11374
▁第二任	-11375
▁〕	-11376
▁再生	-11377
▁张国	-11378
▁约定	-11379
▁南投县	-11380
▁尘	-11381
▁林下	-11382
▁阵线	-11383
龙类	-11384
▁凯尔	-11385
▁新店	-11386
▁舆论	-11387
▁船员	-11388
▁嗜	-11389
物理	-11390
▁关心	-11391
▁本区	-11392
▁550	-11393
▁不敌	-11394
▁中午	-11395
▁有用	-11396
▁楼宇	-11397
▁短篇小说	-11398
书馆	-11399
▁丰臣	-11400
▁动漫	-11401
▁对面	-11402
▁招收	-11403
▁生下	-11404
▁霹	-11405
▁雁	-11406
▁次郎	-11407
▁贫穷	-11408
▁组织部	-11409
▁绒	-11410
▁整修	-11411
▁编成	-11412
▁维吾尔	-11413
▁二十二年	-11414
▁旭	-11415
▁新任	-11416
▁上市公司	-11417
▁お	-11418
▁东吴	-11419
▁年纪	-11420
▁氟化	-11421
▁有限责任	-11422
▁联合国教	-11423
▁联合国教科文组织	-11424
▁秩序	-11425
▁为准	-11426
▁目脂	-11427
▁站点	-11428
▁City	-11429
▁氧气	-11430
▁温暖	-11431
▁百科	-11432
▁Rich	-11433
报告	-11434
▁侦测	-11435
▁战绩	-11436
▁日内瓦	-11437
▁腓特烈	-11438
▁平时	-11439
▁电讯	-11440
▁实数	-11441
▁搜集	-11442
▁预留	-11443
▁您	-11444
▁绣	-11445
年间	-11446
报道	-11447
▁号称	-11448
▁154	-11449
ij	-11450
▁缠	-11451
▁发放	-11452
▁奈良	-11453
▁爱丁堡	-11454
▁两场	-11455
▁传出	-11456
▁刺杀	-11457
▁崎	-11458
▁接纳	-11459
▁编纂	-11460
▁1876	-11461
茨克	-11462
▁传记	-11463
▁环节	-11464
▁尼茨基	-11465
▁に	-11466
ors	-11467
▁mm	-11468
▁东非	-11469
▁模糊	-11470
▁过滤	-11471
EM	-11472
▁岑	-11473
▁历时	-11474
▁户籍	-11475
▁文库	-11476
▁中文版	-11477
尼察	-11478
▁天台	-11479
▁张学	-11480
▁攻势	-11481
▁海地	-11482
▁米勒	-11483
▁台湾人	-11484
▁屏东县	-11485
▁啊	-11486
▁密西西比	-11487
▁梅尔	-11488
▁致命	-11489
登堡	-11490
▁审议	-11491
▁暗示	-11492
▁枪械	-11493
▁梅斯	-11494
▁126	-11495
▁斯泰因	-11496
▁草本植物	-11497
▁こ	-11498
历史	-11499
▁前去	-11500
▁土库	-11501
▁极少	-11502
▁马上	-11503
▁参与者	-11504
电话	-11505
▁外籍	-11506
▁都城	-11507
▁击中	-11508
▁山城	-11509
▁战时	-11510
▁西域	-11511
▁1883	-11512
限于	-11513
▁兵器	-11514
▁德文	-11515
▁杯赛	-11516
▁高桥	-11517
▁三部曲	-11518
▁大洋洲	-11519
▁领导小组	-11520
▁Facebook	-11521
乌斯	-11522
▁at	-11523
▁在此	-11524
▁罢工	-11525
▁雅克	-11526
▁50%	-11527
▁敢	-11528
证券	-11529
▁兼容	-11530
▁决心	-11531
▁明亮	-11532
▁最有	-11533
▁霹雳	-11534
▁颗粒	-11535
▁进步党	-11536
阿拉	-11537
▁买卖	-11538
▁参照	-11539
▁洛特	-11540
▁James	-11541
▁长女	-11542
▁挑战赛	-11543
公署	-11544
▁十万	-11545
▁总教	-11546
▁散布	-11547
▁武德	-11548
▁Mon	-11549
▁1868	-11550
▁在此期间	-11551
za	-11552
▁颠	-11553
▁奇迹	-11554
▁括	-11555
▁捉	-11556
▁宁波市	-11557
▁幻想	-11558
▁阿萨	-11559
▁隆庆	-11560
▁波长	-11561
▁安德鲁	-11562
▁谦	-11563
▁之所	-11564
▁伯克	-11565
▁道具	-11566
▁IBM	-11567
▁世界纪录	-11568
▁Entertainment	-11569
▁枯	-11570
▁消化	-11571
▁登基	-11572
▁谴责	-11573
▁这件	-11574
▁检察官	-11575
▁分局	-11576
▁怀特	-11577
▁物流	-11578
▁约合	-11579
▁滩	-11580
▁之类	-11581
▁向北	-11582
▁第六十	-11583
▁语言学	-11584
▁挡	-11585
ife	-11586
▁接力	-11587
▁铸造	-11588
▁马格	-11589
ield	-11590
▁心灵	-11591
▁逃走	-11592
马尔	-11593
▁举重	-11594
▁交互	-11595
▁印地	-11596
▁藏族	-11597
ble	-11598
rol	-11599
▁只得	-11600
▁哥斯	-11601
▁上下车	-11602
▁户外	-11603
▁不规则	-11604
▁凤山	-11605
▁联队	-11606
▁CPU	-11607
▁酮	-11608
▁特罗	-11609
▁闪电	-11610
▁War	-11611
▁万人次	-11612
▁慧	-11613
▁醉	-11614
王国	-11615
.2%	-11616
200	-11617
▁兰科	-11618
▁画作	-11619
▁约束	-11620
▁诠释	-11621
▁轻型	-11622
▁崛	-11623
its	-11624
▁偏北	-11625
▁刚刚	-11626
▁摩根	-11627
▁道格	-11628
OT	-11629
▁270	-11630
▁综合性	-11631
不多	-11632
▁出使	-11633
▁地主	-11634
之间	-11635
▁依法	-11636
▁建安	-11637
▁拉德	-11638
▁捐款	-11639
▁硝酸	-11640
▁除外	-11641
▁角色扮演	-11642
▁当今	-11643
51	-11644
RS	-11645
▁雏	-11646
▁字样	-11647
▁猎物	-11648
▁墨尔本	-11649
▁斯洛文	-11650
▁6000	-11651
▁Amer	-11652
▁盒	-11653
bur	-11654
▁为什么	-11655
▁夫斯基	-11656
办公	-11657
▁原文	-11658
▁地底	-11659
▁多于	-11660
▁并列	-11661
▁患有	-11662
▁行列	-11663
Cl	-11664
不到	-11665
▁五位	-11666
▁债务	-11667
▁合适	-11668
▁残疾	-11669
▁独裁	-11670
▁普利	-11671
▁神奇	-11672
▁篮板	-11673
▁阿卜杜	-11674
▁一届	-11675
▁乘车	-11676
▁婆罗	-11677
▁市辖	-11678
▁港岛	-11679
▁斯洛文尼亚	-11680
▁拉普	-11681
▁餐饮	-11682
▁东端	-11683
▁光度	-11684
▁公署	-11685
▁局面	-11686
▁振兴	-11687
▁石门	-11688
▁全境	-11689
▁高新	-11690
96	-11691
▁亚瑟	-11692
▁总署	-11693
▁鱼目	-11694
▁高等法院	-11695
▁圆柱	-11696
▁Tom	-11697
士兰	-11698
特尔	-11699
▁二段	-11700
▁要素	-11701
▁俄亥俄州	-11702
▁弗里德里希	-11703
▁二楼	-11704
▁民建	-11705
▁眼镜	-11706
▁长征	-11707
▁Sol	-11708
▁辛亥革命	-11709
▁炉	-11710
达州	-11711
▁侵犯	-11712
▁Pre	-11713
▁漫画作品	-11714
▁贪污	-11715
▁吉他手	-11716
▁巴塞罗	-11717
▁追溯到	-11718
▁层次	-11719
include	-11720
▁Er	-11721
▁祖国	-11722
▁人民法院	-11723
▁疼	-11724
▁皖	-11725
▁作画	-11726
▁团员	-11727
▁矿业	-11728
▁纸币	-11729
屠杀	-11730
▁相隔	-11731
▁车厂	-11732
▁难度	-11733
▁旱	-11734
▁学业	-11735
▁蛮	-11736
▁相遇	-11737
▁邓小平	-11738
bo	-11739
▁先发	-11740
▁已故	-11741
▁被俘	-11742
学士	-11743
火箭	-11744
▁下水	-11745
▁亚裔	-11746
▁力学	-11747
▁单车	-11748
▁忽略	-11749
▁水手	-11750
▁6.1	-11751
▁意识形态	-11752
▁Produ	-11753
▁荀	-11754
▁EM	-11755
▁两栖	-11756
▁圣路	-11757
▁洞穴	-11758
▁激光	-11759
▁路易斯安	-11760
▁孵	-11761
沙咀	-11762
▁ex	-11763
▁尖沙咀	-11764
ensis	-11765
54	-11766
OD	-11767
▁两天	-11768
▁对付	-11769
▁目的地	-11770
▁人质	-11771
▁村镇	-11772
▁肯尼	-11773
▁冠军杯	-11774
▁北卡罗	-11775
▁不想	-11776
▁遇见	-11777
▁神学院	-11778
戈夫	-11779
▁排放	-11780
▁虐	-11781
▁研讨	-11782
▁莫尔	-11783
▁旅客列车	-11784
▁全省	-11785
▁友人	-11786
▁城中	-11787
▁太保	-11788
▁巴塞罗那	-11789
▁楠	-11790
▁un	-11791
▁小项	-11792
▁年仅	-11793
▁检讨	-11794
▁激发	-11795
▁Don	-11796
▁发到	-11797
▁多斯	-11798
▁存活	-11799
▁斯巴	-11800
▁民营	-11801
▁近期	-11802
▁邯郸	-11803
▁公墓	-11804
▁对流	-11805
▁屏幕	-11806
▁濒危	-11807
▁苏军	-11808
▁弗拉基	-11809
▁光复	-11810
▁命中	-11811
▁汕头	-11812
▁wh	-11813
▁皇宫	-11814
▁大安	-11815
▁1861	-11816
▁城隍	-11817
▁总队	-11818
▁拍卖	-11819
▁波利	-11820
▁升降机	-11821
▁斯特拉	-11822
▁杜父	-11823
▁连线	-11824
▁7.5	-11825
▁总冠军	-11826
▁中国中央	-11827
▁Michael	-11828
▁处罚	-11829
▁巴格	-11830
▁斯德	-11831
▁星团	-11832
▁西奥	-11833
▁常见于	-11834
▁财政部	-11835
▁维基百科	-11836
▁ww	-11837
▁水道	-11838
▁翟	-11839
自动	-11840
▁SU	-11841
▁关押	-11842
▁整车	-11843
▁诺斯	-11844
▁酒精	-11845
▁行政区域	-11846
▁不易	-11847
▁分隔	-11848
▁清晨	-11849
▁资本主义	-11850
▁泾	-11851
▁谜	-11852
▁下层	-11853
▁耕地	-11854
▁西西里	-11855
▁妓	-11856
▁健身	-11857
▁悠久	-11858
▁溶解	-11859
▁迪克	-11860
▁龙山	-11861
▁交响乐团	-11862
▁鞍	-11863
兴趣	-11864
ION	-11865
▁上行	-11866
▁减轻	-11867
▁向前	-11868
▁电源	-11869
▁淘汰赛	-11870
▁惹	-11871
▁一幅	-11872
▁10%	-11873
▁主人公	-11874
以为	-11875
▁国公	-11876
▁就职	-11877
▁巩固	-11878
▁座落	-11879
▁杜父鱼	-11880
▁第十八	-11881
▁巴德	-11882
▁上空	-11883
▁镇江	-11884
▁第四届	-11885
▁1891	-11886
▁八大	-11887
▁应付	-11888
▁陶瓷	-11889
▁九十	-11890
▁标签	-11891
▁137	-11892
▁铜锣湾	-11893
td	-11894
▁ち	-11895
▁从中	-11896
▁古坟	-11897
▁立面	-11898
▁金色	-11899
▁广播电视	-11900
加州	-11901
▁行销	-11902
▁穴	-11903
▁楼高	-11904
▁都尉	-11905
▁RNA	-11906
▁市辖区	-11907
ya	-11908
▁正好	-11909
▁www	-11910
▁大气层	-11911
▁鄞	-11912
▁AL	-11913
▁卡利	-11914
▁度量	-11915
▁德米	-11916
▁玛格	-11917
▁首发	-11918
▁土司	-11919
▁152	-11920
▁成都市	-11921
▁符腾堡	-11922
▁Thom	-11923
▁售卖	-11924
▁存放	-11925
▁学界	-11926
▁摩天	-11927
▁科下	-11928
▁喀麦隆	-11929
▁阿曼	-11930
▁皇太子	-11931
▁自动化	-11932
52	-11933
▁痕	-11934
res	-11935
▁优化	-11936
▁增至	-11937
▁两项	-11938
▁波多	-11939
▁除非	-11940
▁上下行	-11941
▁之所以	-11942
▁纬	-11943
▁全台	-11944
▁捕捉	-11945
▁沿著	-11946
▁离职	-11947
▁花岗	-11948
▁轻轨	-11949
▁长野	-11950
▁阶层	-11951
▁晓	-11952
▁蕴	-11953
▁中叶	-11954
▁八角	-11955
▁叔父	-11956
▁四方	-11957
▁外侧	-11958
▁月间	-11959
osh	-11960
▁困扰	-11961
▁气氛	-11962
▁演算	-11963
form	-11964
▁166	-11965
▁许可证	-11966
▁马拉松	-11967
各样	-11968
朗德	-11969
论文	-11970
▁一事	-11971
▁兵库	-11972
▁阴阳	-11973
▁天启	-11974
▁足协杯	-11975
▁Xbox	-11976
▁拉丁美洲	-11977
ASA	-11978
▁参战	-11979
▁名胜	-11980
▁国营	-11981
▁泰尔	-11982
▁航站	-11983
▁隔离	-11984
▁主委	-11985
▁单人	-11986
▁文昌	-11987
▁炮兵	-11988
▁缺少	-11989
▁西端	-11990
▁Sal	-11991
▁Trans	-11992
BN	-11993
▁台铁	-11994
▁布达	-11995
▁漳州	-11996
▁词语	-11997
▁金陵	-11998
▁宜兰县	-11999
巴黎	-12000
▁单打	-12001
▁普查	-12002
▁贞观	-12003
▁3.2	-12004
▁明尼苏	-12005
注意	-12006
▁华沙	-12007
▁宇航	-12008
▁法国巴黎	-12009
大使	-12010
▁票价	-12011
地马拉	-12012
▁第二年	-12013
AA	-12014
作物	-12015
贡献	-12016
▁于西	-12017
▁全名	-12018
▁北边	-12019
▁夺回	-12020
▁威力	-12021
▁录取	-12022
▁剧场版	-12023
▁外国人	-12024
▁也许	-12025
▁会战	-12026
▁多用	-12027
▁总结	-12028
▁输送	-12029
▁ッ	-12030
▁摊	-12031
▁溃	-12032
ism	-12033
▁日托	-12034
▁特快	-12035
▁血型	-12036
▁132	-12037
▁学生会	-12038
院校	-12039
▁回族	-12040
▁村级	-12041
▁河西	-12042
▁特雷	-12043
▁算是	-12044
▁轻松	-12045
▁酋长	-12046
▁Kar	-12047
▁鳍	-12048
▁移除	-12049
▁微生物	-12050
▁新竹市	-12051
▁一丁	-12052
▁偶然	-12053
▁八达	-12054
▁公正	-12055
▁赞赏	-12056
国务院	-12057
天文学	-12058
▁Stre	-12059
▁校内	-12060
▁牛顿	-12061
▁布里斯	-12062
▁钙	-12063
▁IV	-12064
▁崛起	-12065
▁本影	-12066
▁650	-12067
▁第二百	-12068
▁蛱	-12069
民主共和国	-12070
▁豹	-12071
神经	-12072
▁原声	-12073
▁女生	-12074
▁待遇	-12075
▁母语	-12076
▁配套	-12077
▁年秋	-12078
▁照明	-12079
菲尔德	-12080
▁吡	-12081
▁塞纳	-12082
▁成份	-12083
▁曾效力	-12084
▁四十二年	-12085
省长	-12086
▁叶片	-12087
▁国内外	-12088
▁1850	-12089
▁1877	-12090
▁达赖	-12091
▁彦	-12092
恩省	-12093
白色	-12094
▁书画	-12095
▁坑底	-12096
▁有别	-12097
电车	-12098
▁大脑	-12099
▁带回	-12100
▁称帝	-12101
▁蝉	-12102
▁贿	-12103
era	-12104
▁BS	-12105
▁公投	-12106
▁新区	-12107
▁Boy	-12108
▁Pla	-12109
▁骑士团	-12110
▁中国中央电视台	-12111
▁究	-12112
▁PR	-12113
▁四强	-12114
▁文凭	-12115
▁药品	-12116
▁语族	-12117
▁避难	-12118
▁稳定性	-12119
▁尼日利亚	-12120
方法	-12121
▁一街	-12122
▁下行	-12123
▁外交关系	-12124
▁槽	-12125
▁业主	-12126
▁促成	-12127
▁司空	-12128
▁很难	-12129
▁捷尔	-12130
▁显然	-12131
▁物语	-12132
▁量产	-12133
▁1862	-12134
堂区	-12135
对手	-12136
▁处在	-12137
▁太极	-12138
▁釜山	-12139
▁香港电台	-12140
▁芜	-12141
▁之女	-12142
▁元代	-12143
▁打出	-12144
▁时至	-12145
▁补选	-12146
▁177	-12147
▁代表大会	-12148
▁吉尔吉斯	-12149
▁ら	-12150
▁侠	-12151
▁分治	-12152
▁结尾	-12153
▁黑白	-12154
轨电车	-12155
▁竞争对手	-12156
▁瑶	-12157
▁塑料	-12158
▁富裕	-12159
▁无意	-12160
文件	-12161
▁优胜	-12162
▁字形	-12163
▁补助	-12164
▁任教于	-12165
▁蒙古族	-12166
inc	-12167
▁追封	-12168
▁工学院	-12169
▁第五届	-12170
▁审计	-12171
▁摔角	-12172
▁本季	-12173
▁理工学院	-12174
▁泸	-12175
▁化妆	-12176
▁合计	-12177
▁旧称	-12178
▁Cap	-12179
▁刑法	-12180
▁泰山	-12181
▁热爱	-12182
▁舍人	-12183
▁辅音	-12184
▁守门员	-12185
▁膝	-12186
交所	-12187
温度	-12188
警察	-12189
▁收益	-12190
▁骨骼	-12191
CD	-12192
▁咏	-12193
▁宛	-12194
力量	-12195
拉德	-12196
范围	-12197
▁南山	-12198
▁惩罚	-12199
▁珠宝	-12200
▁建筑风格	-12201
▁亏	-12202
声明	-12203
▁协同	-12204
▁纯粹	-12205
▁有助于	-12206
▁日托米尔	-12207
▁三天	-12208
▁奥兰	-12209
▁空袭	-12210
▁聚合	-12211
ull	-12212
▁不设	-12213
▁分入	-12214
▁阿卡	-12215
▁2.9	-12216
▁马来亚	-12217
▁冠名	-12218
▁勒斯	-12219
▁机率	-12220
▁沃伦	-12221
▁Cont	-12222
▁五千	-12223
▁大河	-12224
▁飞船	-12225
▁所罗门	-12226
同盟	-12227
▁普林	-12228
▁语文	-12229
尼戈夫	-12230
▁搁	-12231
五十	-12232
▁日圆	-12233
▁月面	-12234
▁现役	-12235
▁续约	-12236
▁二氧化碳	-12237
▁美国政府	-12238
▁氏族	-12239
▁清理	-12240
▁真理	-12241
▁神明	-12242
ript	-12243
▁Des	-12244
▁佥	-12245
其为	-12246
▁制服	-12247
▁引力	-12248
▁转动	-12249
▁巴洛克	-12250
▁三峡	-12251
▁全书	-12252
▁很小	-12253
▁切尔尼戈夫	-12254
半部	-12255
▁危害	-12256
▁否定	-12257
▁灵活	-12258
▁选定	-12259
▁师生	-12260
▁进展	-12261
▁Ben	-12262
▁四处	-12263
▁承受	-12264
▁港区	-12265
▁第二部	-12266
▁羌	-12267
▁Cy	-12268
▁以内	-12269
▁首周	-12270
▁高速铁路	-12271
影响	-12272
▁宫中	-12273
▁尔巴	-12274
▁年出	-12275
▁找出	-12276
▁神祇	-12277
▁之星	-12278
▁教义	-12279
▁无需	-12280
▁海啸	-12281
▁日常生活	-12282
总局	-12283
▁号召	-12284
itch	-12285
BO	-12286
▁暹罗	-12287
▁起到	-12288
▁电影院	-12289
▁垫	-12290
▁枣	-12291
.1%	-12292
▁尼科	-12293
▁终端	-12294
▁葬于	-12295
▁补偿	-12296
▁卡洛斯	-12297
▁第十五	-12298
▁广播公司	-12299
▁科罗拉多州	-12300
仙奴	-12301
奏曲	-12302
▁城乡	-12303
▁福岛	-12304
▁总领事	-12305
▁旅游业	-12306
▁都御史	-12307
▁二十五年	-12308
▁奢	-12309
▁带动	-12310
▁教徒	-12311
▁旗舰	-12312
▁无效	-12313
▁6.3	-12314
电子	-12315
▁伍德	-12316
▁弗莱	-12317
▁投影	-12318
▁统帅	-12319
▁拆卸	-12320
▁聪明	-12321
▁这段	-12322
▁征收	-12323
▁第十六	-12324
▁Power	-12325
▁泊	-12326
▁渥	-12327
▁取景	-12328
▁始发	-12329
▁Gra	-12330
▁维生素	-12331
▁Media	-12332
▁国际天文学	-12333
▁国际天文学联合会	-12334
▁匾	-12335
▁山丘	-12336
▁时有	-12337
▁Sam	-12338
57	-12339
▁主修	-12340
▁机型	-12341
▁离散	-12342
▁维利	-12343
▁道格拉斯	-12344
▁不好	-12345
▁卷入	-12346
▁形势	-12347
▁溶剂	-12348
▁特急	-12349
berg	-12350
▁多年生	-12351
▁が	-12352
▁一并	-12353
▁中小	-12354
▁监控	-12355
科大学	-12356
▁金曲奖	-12357
▁意大利语	-12358
▁は	-12359
▁鞑	-12360
▁库克	-12361
▁日到	-12362
▁测定	-12363
▁音乐节	-12364
▁King	-12365
▁二者	-12366
▁全称	-12367
▁幸运	-12368
▁幼稚	-12369
▁布鲁斯	-12370
十字	-12371
▁丰田	-12372
▁南港	-12373
▁多明	-12374
▁白天	-12375
▁运载火箭	-12376
卫星	-12377
瓦多	-12378
▁受邀	-12379
▁王公	-12380
▁Bur	-12381
▁中央人民政府	-12382
▁仙女	-12383
▁便会	-12384
▁看作	-12385
▁译本	-12386
▁迪亚	-12387
▁鲽	-12388
▁内心	-12389
▁大赏	-12390
▁罗伯	-12391
▁萤	-12392
▁分界	-12393
▁山水	-12394
▁所作	-12395
▁3.7	-12396
▁莆	-12397
▁修读	-12398
▁厕所	-12399
▁汉中	-12400
▁遍布	-12401
▁Hy	-12402
▁古墓	-12403
▁国徽	-12404
▁契约	-12405
▁鲑	-12406
▁DJ	-12407
▁珍贵	-12408
▁万港元	-12409
▁逸	-12410
▁三号	-12411
▁上线	-12412
▁民事	-12413
▁总教练	-12414
▁斯克州	-12415
▁曾一度	-12416
▁清政府	-12417
▁1867	-12418
▁中止	-12419
▁南亚	-12420
▁没收	-12421
▁遵循	-12422
▁酰	-12423
▁一侧	-12424
▁华视	-12425
▁开源	-12426
▁报春	-12427
▁视野	-12428
▁−	-12429
保险	-12430
▁操控	-12431
▁满意	-12432
▁费尔德	-12433
▁一把	-12434
▁蛱蝶	-12435
▁这条	-12436
▁湛	-12437
▁喷射	-12438
▁中心点	-12439
▁经济学家	-12440
▁梭	-12441
▁顽	-12442
尼奥	-12443
▁北非	-12444
▁和尚	-12445
▁only	-12446
▁关节	-12447
▁分歧	-12448
▁自愿	-12449
▁第十七	-12450
▁大胜	-12451
▁里德	-12452
▁臧	-12453
▁弹道	-12454
▁扫描	-12455
▁嘉义市	-12456
▁会上	-12457
▁化身	-12458
▁恶劣	-12459
▁界面	-12460
▁1882	-12461
▁跃	-12462
▁幼虫	-12463
▁事变	-12464
▁日晚	-12465
▁结盟	-12466
▁预选	-12467
▁三子	-12468
▁天才	-12469
▁长者	-12470
▁iOS	-12471
▁探险家	-12472
学系	-12473
资产	-12474
inal	-12475
▁苗栗县	-12476
▁College	-12477
工厂	-12478
志明	-12479
▁传达	-12480
▁售出	-12481
▁托勒	-12482
▁主义者	-12483
▁る	-12484
▁掀	-12485
专线	-12486
发电	-12487
特拉	-12488
▁福斯	-12489
▁鲁迅	-12490
▁密苏里	-12491
▁立方米	-12492
▁客运专线	-12493
▁褐	-12494
佩斯	-12495
▁位处	-12496
▁格斗	-12497
▁特务	-12498
▁金正	-12499
me	-12500
▁联会	-12501
▁阿仙奴	-12502
理工学院	-12503
▁蟾	-12504
▁公馆	-12505
▁向上	-12506
▁拥立	-12507
▁魔戒	-12508
▁第四名	-12509
▁一站	-12510
▁搞笑	-12511
▁天顺	-12512
by	-12513
▁骄	-12514
▁幽默	-12515
++	-12516
▁两支	-12517
▁合格	-12518
▁外科	-12519
▁崩溃	-12520
▁建交	-12521
▁时事	-12522
▁顶端	-12523
▁风俗	-12524
▁对外开放	-12525
耶尔	-12526
▁孙权	-12527
▁珍妮	-12528
▁号码	-12529
▁必然	-12530
▁舰艇	-12531
▁几内亚	-12532
▁1875	-12533
▁东门	-12534
▁丧生	-12535
▁利马	-12536
▁唐高	-12537
▁火焰	-12538
信长	-12539
.11	-12540
▁北爱	-12541
▁垄断	-12542
▁基斯	-12543
▁意志	-12544
▁水流	-12545
▁牛津大学	-12546
▁阿姆斯特丹	-12547
明星	-12548
▁同位	-12549
▁场馆	-12550
▁日升	-12551
▁狸藻	-12552
▁古生物	-12553
EO	-12554
仪式	-12555
▁意甲	-12556
▁梳	-12557
▁区段	-12558
▁组长	-12559
87	-12560
▁Fl	-12561
▁九个	-12562
▁签名	-12563
▁东德	-12564
▁县道	-12565
▁海水鱼	-12566
▁卡里	-12567
▁处分	-12568
▁滑冰	-12569
▁山脚	-12570
▁德斯	-12571
▁手指	-12572
▁流星	-12573
▁评分	-12574
研究院	-12575
▁毅	-12576
▁迹	-12577
▁上班	-12578
▁干预	-12579
▁身长	-12580
▁集镇	-12581
▁3.3	-12582
▁非正式	-12583
▁马克斯	-12584
▁感应	-12585
▁大法官	-12586
▁个人专辑	-12587
▁地方法院	-12588
▁肯塔基州	-12589
▁茜	-12590
▁AN	-12591
▁先行	-12592
▁李克	-12593
▁理性	-12594
▁Ele	-12595
▁岱	-12596
会区	-12597
制品	-12598
▁亚伯	-12599
▁传染	-12600
▁放入	-12601
▁稍后	-12602
▁造像	-12603
▁政府军	-12604
▁工程学院	-12605
广场	-12606
托夫	-12607
▁剥夺	-12608
▁同行	-12609
▁师师	-12610
▁极其	-12611
运河	-12612
▁市立	-12613
▁航运	-12614
▁宣传部	-12615
▁电动机	-12616
▁五名	-12617
▁嵌入	-12618
▁总编辑	-12619
▁2500	-12620
▁Road	-12621
克力	-12622
▁中级	-12623
▁临近	-12624
▁均匀	-12625
▁多半	-12626
▁法则	-12627
▁烟台	-12628
▁龙门	-12629
▁福尔摩	-12630
▁东欧	-12631
▁十个	-12632
▁教科	-12633
▁散馆	-12634
▁西尔	-12635
ision	-12636
▁供给	-12637
▁卫队	-12638
▁标识	-12639
▁露天	-12640
▁动力学	-12641
▁1879	-12642
▁开口	-12643
▁新泽	-12644
▁电阻	-12645
司马	-12646
▁伯明	-12647
▁总和	-12648
▁规律	-12649
▁南南西	-12650
▁华盛顿州	-12651
▁囚禁	-12652
▁拨款	-12653
▁脉冲	-12654
▁阻碍	-12655
▁中国工	-12656
▁台湾岛	-12657
94	-12658
uro	-12659
▁误差	-12660
84	-12661
莉亚	-12662
问题	-12663
▁大为	-12664
▁陆上	-12665
▁特有种	-12666
少女	-12667
▁加纳	-12668
▁未成	-12669
▁王氏	-12670
▁台中县	-12671
▁1878	-12672
▁钝	-12673
坦克	-12674
艺人	-12675
▁人格	-12676
▁嫌疑	-12677
▁洛林	-12678
▁相接	-12679
▁街市	-12680
▁滴	-12681
▁出狱	-12682
▁发酵	-12683
▁孤儿	-12684
▁昂贵	-12685
▁纵贯	-12686
▁路由	-12687
ange	-12688
▁世界排名	-12689
▁麒	-12690
气温	-12691
▁Im	-12692
▁疫苗	-12693
▁耶尔	-12694
▁金字	-12695
▁音节	-12696
▁教育局	-12697
▁闽南语	-12698
▁1873	-12699
▁暑	-12700
变化	-12701
葫芦	-12702
por	-12703
▁期待	-12704
▁正值	-12705
▁舞曲	-12706
▁韦斯	-12707
克斯洛	-12708
▁边疆区	-12709
▁捷克斯洛	-12710
▁捷克斯洛伐克	-12711
▁亲属	-12712
▁加拉	-12713
▁帆船	-12714
▁金马奖	-12715
▁蚌	-12716
哥尔	-12717
▁东华	-12718
▁葛拉	-12719
▁ABC	-12720
IX	-12721
▁失利	-12722
▁有个	-12723
▁热情	-12724
▁中央政府	-12725
▁篡	-12726
▁ph	-12727
▁奥里	-12728
▁马山	-12729
控制	-12730
▁干旱	-12731
▁剑桥大学	-12732
▁疲	-12733
▁假日	-12734
▁安抚	-12735
▁材质	-12736
▁赞成	-12737
▁预警	-12738
歇根	-12739
溪县	-12740
▁今年	-12741
▁容积	-12742
▁生育	-12743
▁谋反	-12744
▁KBS	-12745
▁史诗	-12746
▁男爵	-12747
▁飞往	-12748
ords	-12749
德萨	-12750
进制	-12751
▁会合	-12752
▁副省长	-12753
▁罐	-12754
公尺	-12755
▁ID	-12756
▁无论是	-12757
▁孕	-12758
合作	-12759
▁传闻	-12760
▁出产	-12761
▁工委	-12762
▁抽签	-12763
▁旅程	-12764
▁为例	-12765
▁全军	-12766
▁城关	-12767
▁巨型	-12768
▁督察	-12769
▁至元	-12770
▁跳水	-12771
▁奸	-12772
▁Lu	-12773
▁不管	-12774
▁布伦	-12775
▁新年	-12776
▁源头	-12777
▁车票	-12778
▁Alb	-12779
▁解决方案	-12780
▁代尔	-12781
▁多米	-12782
▁鞑靼	-12783
▁Cal	-12784
▁全长约	-12785
▁副司令员	-12786
▁年幼	-12787
▁武侠	-12788
▁134	-12789
▁中信	-12790
▁中毒	-12791
▁历年	-12792
▁拉特	-12793
▁魅力	-12794
▁商业银行	-12795
▁南越	-12796
▁塑胶	-12797
▁天宝	-12798
▁季风	-12799
▁指向	-12800
▁故宫	-12801
▁歌迷	-12802
▁此曲	-12803
▁起草	-12804
▁爱知县	-12805
ze	-12806
▁琵	-12807
▁钞	-12808
常侍	-12809
玄宗	-12810
▁TR	-12811
▁胡安	-12812
▁裁定	-12813
▁航站楼	-12814
▁三分之一	-12815
高原	-12816
▁一字	-12817
▁开往	-12818
▁都督府	-12819
▁全国人大常委会	-12820
▁ل	-12821
▁不太	-12822
▁农田	-12823
▁该州	-12824
▁胺	-12825
▁鳚	-12826
▁下分	-12827
▁光滑	-12828
▁教材	-12829
▁文学奖	-12830
海岸	-12831
▁克林	-12832
▁兰斯	-12833
▁名声	-12834
▁摄氏	-12835
▁纵向	-12836
▁乾隆帝	-12837
▁中国工程	-12838
unt	-12839
▁八强	-12840
elle	-12841
▁Hen	-12842
▁皮尔	-12843
▁维耶	-12844
▁拉瓦	-12845
▁西雅	-12846
▁败给	-12847
▁这首	-12848
▁Mer	-12849
▁游戏机	-12850
生产	-12851
▁大中	-12852
▁山是	-12853
▁des	-12854
83	-12855
▁q	-12856
▁币	-12857
▁便于	-12858
▁凯文	-12859
▁塞内	-12860
▁永和	-12861
职人员	-12862
▁加州大学	-12863
uss	-12864
▁金钟奖	-12865
▁优质	-12866
▁韩语	-12867
▁Show	-12868
▁じ	-12869
▁禹	-12870
▁账	-12871
▁全剧	-12872
▁感谢	-12873
▁美式	-12874
▁Comm	-12875
的是	-12876
oot	-12877
▁不定	-12878
▁从来	-12879
▁归还	-12880
▁棋手	-12881
交易所	-12882
▁Club	-12883
▁瘦	-12884
▁常住	-12885
▁野战军	-12886
▁FM	-12887
▁三家	-12888
▁精通	-12889
li	-12890
▁筒	-12891
▁BL	-12892
▁多处	-12893
▁构想	-12894
▁高尔夫球	-12895
▁阿拉斯加州	-12896
97	-12897
▁事发	-12898
▁千代	-12899
▁天鹅	-12900
▁太尉	-12901
▁捕获	-12902
▁目击	-12903
▁耗资	-12904
▁156	-12905
▁近现代	-12906
▁北门	-12907
▁哈密	-12908
▁摩擦	-12909
▁景泰	-12910
▁比斯	-12911
▁衰落	-12912
▁埃里克	-12913
南道	-12914
▁全港	-12915
▁击出	-12916
▁听说	-12917
▁慈鲷	-12918
▁挂牌	-12919
▁半决赛	-12920
▁托勒密	-12921
▁购物中心	-12922
浦路	-12923
▁爬行	-12924
▁琉璃	-12925
▁私有	-12926
▁心脏病	-12927
82	-12928
▁mu	-12929
▁乙组	-12930
▁托运	-12931
▁法文	-12932
▁修正案	-12933
▁敖德萨	-12934
▁芥	-12935
▁欧亚	-12936
▁1874	-12937
▁硼	-12938
▁斐济	-12939
▁老年	-12940
航天	-12941
▁九巴	-12942
▁发光	-12943
▁复旦	-12944
▁投靠	-12945
▁南北向	-12946
▁右侍郎	-12947
▁意味著	-12948
▁MC	-12949
▁僧侣	-12950
▁千年	-12951
▁安庆	-12952
▁腐败	-12953
▁1864	-12954
▁带著	-12955
▁拉赫	-12956
▁特斯	-12957
▁电荷	-12958
▁136	-12959
▁世界冠军	-12960
▁シ	-12961
团长	-12962
▁Ev	-12963
▁ng	-12964
▁佛像	-12965
▁渡轮	-12966
▁维莱	-12967
▁织田信长	-12968
▁加利福尼亚	-12969
▁藓	-12970
▁事项	-12971
▁凯特	-12972
▁承袭	-12973
▁结业	-12974
▁1848	-12975
▁柜	-12976
▁列举	-12977
▁多条	-12978
▁家村	-12979
▁全日制	-12980
埃及	-12981
▁耶稣会	-12982
▁野生动物	-12983
▁几天	-12984
▁卡普	-12985
▁紫色	-12986
▁205	-12987
▁Her	-12988
ution	-12989
▁眉	-12990
ila	-12991
▁RP	-12992
▁前提	-12993
▁构建	-12994
▁科目	-12995
▁自制	-12996
▁Mart	-12997
ada	-12998
▁战功	-12999
▁植被	-13000
▁水力	-13001
▁白沙	-13002
▁百老	-13003
▁â	-13004
▁柠	-13005
▁万千	-13006
▁之变	-13007
▁大碟	-13008
▁女皇	-13009
▁录像	-13010
▁悲剧	-13011
▁退伍	-13012
▁精神病	-13013
▁往后	-13014
▁空降	-13015
▁英皇	-13016
▁二十八	-13017
EG	-13018
广告	-13019
▁企鹅	-13020
▁新市	-13021
▁洋行	-13022
▁一街庄	-13023
▁中国工程院	-13024
▁矽	-13025
▁全县	-13026
▁天子	-13027
▁换取	-13028
▁本国	-13029
▁鳞片	-13030
▁百老汇	-13031
▁在此之前	-13032
▁Techn	-13033
▁酯	-13034
年度	-13035
顾问	-13036
▁卡河	-13037
▁Jun	-13038
▁伏尔加	-13039
▁发射器	-13040
▁三分	-13041
▁明白	-13042
▁Sun	-13043
▁运动场	-13044
帕齐	-13045
▁修女	-13046
▁官话	-13047
▁App	-13048
▁车辆段	-13049
兄弟	-13050
思想	-13051
▁同属	-13052
▁论述	-13053
哥尔摩	-13054
▁埗	-13055
▁烷	-13056
▁指南	-13057
▁统筹	-13058
▁Pat	-13059
▁放射性	-13060
▁葛拉汉	-13061
▁me	-13062
▁位元	-13063
▁占用	-13064
▁央视	-13065
▁梅里	-13066
▁小组赛	-13067
▁1881	-13068
专业	-13069
▁洲际	-13070
▁Sec	-13071
▁唐玄宗	-13072
▁1840	-13073
▁亚特兰大	-13074
▁斯德哥尔摩	-13075
▁愚	-13076
▁中举	-13077
▁汉武帝	-13078
▁曼彻斯特	-13079
93	-13080
▁元老	-13081
▁出去	-13082
▁投身	-13083
▁揭露	-13084
▁随时	-13085
▁330	-13086
▁二十一	-13087
▁教科书	-13088
▁高中毕业	-13089
买加	-13090
▁因病	-13091
▁街区	-13092
▁远程	-13093
▁人民党	-13094
▁凶手	-13095
▁服用	-13096
▁牙买加	-13097
广播公司	-13098
▁仑	-13099
▁倒塌	-13100
▁创设	-13101
▁动机	-13102
▁年长	-13103
▁接连	-13104
▁Inc	-13105
成本	-13106
的海	-13107
▁婚后	-13108
▁教廷	-13109
▁穆尔	-13110
▁阿基	-13111
▁波罗的海	-13112
▁驰	-13113
▁校址	-13114
▁气压	-13115
▁船长	-13116
▁第四次	-13117
▁SK	-13118
▁西拉	-13119
▁吸血鬼	-13120
步枪	-13121
▁反叛	-13122
▁塔克	-13123
▁小林	-13124
▁新浪	-13125
▁Lib	-13126
▁Win	-13127
▁加龙省	-13128
▁地理学	-13129
▁密歇根	-13130
▁钠	-13131
歌曲	-13132
▁he	-13133
▁奇异	-13134
▁收取	-13135
▁con	-13136
▁抒	-13137
▁再也	-13138
▁四季	-13139
▁抚养	-13140
产阶级	-13141
▁马里兰	-13142
可能	-13143
▁MA	-13144
▁π	-13145
▁绅	-13146
劳动	-13147
独立	-13148
▁sc	-13149
▁伊达	-13150
▁干道	-13151
▁零件	-13152
▁顺德	-13153
▁糯	-13154
▁诰	-13155
▁写真	-13156
▁士官	-13157
▁苏门	-13158
▁集团公司	-13159
▁咀	-13160
州区	-13161
▁兵库县	-13162
ations	-13163
宁市	-13164
安门	-13165
配角	-13166
▁厚度	-13167
▁吉安	-13168
▁女优	-13169
▁所辖	-13170
▁选项	-13171
▁交响曲	-13172
▁西雅图	-13173
▁领事馆	-13174
▁风景区	-13175
▁声母	-13176
▁感动	-13177
▁诛杀	-13178
▁20%	-13179
▁所有人	-13180
▁Unic	-13181
▁大业	-13182
▁宣誓	-13183
▁监测	-13184
▁托尔金	-13185
▁格拉斯哥	-13186
ker	-13187
▁模块	-13188
▁熔岩	-13189
黎加	-13190
▁罢免	-13191
▁153	-13192
▁北爱尔兰	-13193
▁辑	-13194
▁一一	-13195
▁内核	-13196
line	-13197
▁Tra	-13198
▁Center	-13199
▁缪	-13200
丽丝	-13201
▁便宜	-13202
▁同为	-13203
▁小田	-13204
▁当场	-13205
▁教派	-13206
▁阿格	-13207
▁亚足联	-13208
▁镍	-13209
▁一楼	-13210
▁四次	-13211
▁时光	-13212
▁131	-13213
▁第三张	-13214
▁资料库	-13215
▁前端	-13216
▁外墙	-13217
▁读音	-13218
▁三十六年	-13219
▁环境保护	-13220
▁英文名称	-13221
.45	-13222
ula	-13223
▁ON	-13224
▁二个	-13225
▁油画	-13226
▁海伦	-13227
▁获准	-13228
▁濑	-13229
亚目	-13230
▁地委	-13231
▁大清	-13232
▁月亮	-13233
▁未曾	-13234
▁布莱恩	-13235
▁马鞍山	-13236
▁中央大学	-13237
布斯	-13238
▁头发	-13239
▁缓冲	-13240
▁阮朝	-13241
▁附设	-13242
▁北北东	-13243
▁国民小学	-13244
92	-13245
UR	-13246
协商	-13247
▁使命	-13248
▁兼职	-13249
▁民意	-13250
伦西亚	-13251
化县	-13252
▁住所	-13253
▁夜晚	-13254
▁坐在	-13255
▁暴风	-13256
▁机能	-13257
流域	-13258
uch	-13259
▁客人	-13260
▁庆典	-13261
▁较长	-13262
▁美少女	-13263
证券交易所	-13264
UND	-13265
red	-13266
▁西欧	-13267
▁阿特	-13268
▁1865	-13269
▁妖怪	-13270
▁所著	-13271
▁手持	-13272
▁太阳能	-13273
▁あ	-13274
▁大成	-13275
▁子宫	-13276
▁洋基	-13277
▁崁	-13278
▁舅	-13279
▁上级	-13280
▁剧组	-13281
▁文人	-13282
▁清除	-13283
▁维新	-13284
app	-13285
▁射箭	-13286
▁小心	-13287
▁竟然	-13288
▁赫拉	-13289
▁宾夕法尼亚州	-13290
▁Kh	-13291
▁提取	-13292
▁红楼	-13293
▁气象厅	-13294
▁低地	-13295
▁驻华	-13296
▁ro	-13297
▁求学	-13298
▁海面	-13299
▁腾讯	-13300
▁试剂	-13301
▁伊万诺	-13302
▁怨	-13303
▁上部	-13304
▁大英	-13305
▁实录	-13306
▁里斯本	-13307
▁Street	-13308
▁乍	-13309
纪念	-13310
▁代价	-13311
▁姿态	-13312
水区	-13313
▁di	-13314
▁和约	-13315
▁城南	-13316
▁容器	-13317
▁容许	-13318
▁新四军	-13319
▁赦	-13320
事变	-13321
导弹	-13322
▁封建	-13323
▁康乐	-13324
▁榜单	-13325
▁男友	-13326
▁倡议	-13327
▁当成	-13328
▁救出	-13329
▁新港	-13330
▁第七批	-13331
▁三十二年	-13332
景点	-13333
▁对待	-13334
▁帽子	-13335
▁而来	-13336
▁部件	-13337
▁军政府	-13338
夫兰	-13339
▁假面	-13340
▁博客	-13341
▁左派	-13342
▁征讨	-13343
▁损毁	-13344
▁鹿儿	-13345
▁椎	-13346
▁军营	-13347
▁联手	-13348
▁外行星	-13349
▁歌剧院	-13350
▁Award	-13351
总统	-13352
▁本州	-13353
▁校方	-13354
▁长久	-13355
▁γ	-13356
文章	-13357
▁变体	-13358
▁场面	-13359
▁审理	-13360
▁所生	-13361
▁路易斯安那州	-13362
▁薇	-13363
▁节省	-13364
▁近亲	-13365
▁Ver	-13366
▁多样性	-13367
党员	-13368
▁下车	-13369
▁安南	-13370
▁特许	-13371
▁纪律	-13372
▁而行	-13373
▁莫里	-13374
▁Lou	-13375
▁Jack	-13376
▁AD	-13377
▁可爱	-13378
▁有点	-13379
尼加	-13380
皇帝	-13381
▁白马	-13382
▁红海	-13383
▁负于	-13384
农红军	-13385
▁Rock	-13386
新星	-13387
▁佐藤	-13388
▁利润	-13389
▁痕迹	-13390
eral	-13391
▁交通局	-13392
▁1400	-13393
▁锌	-13394
▁分拆	-13395
▁功臣	-13396
▁瀛	-13397
▁谨	-13398
▁优良	-13399
▁或许	-13400
hone	-13401
▁千叶县	-13402
▁鹿儿岛	-13403
▁Bill	-13404
lin	-13405
▁合伙	-13406
▁同乡	-13407
pp	-13408
▁李世	-13409
▁江陵	-13410
▁渔民	-13411
▁师师长	-13412
▁化为	-13413
▁右手	-13414
▁攻破	-13415
▁背叛	-13416
▁警卫	-13417
▁这份	-13418
▁6.2	-13419
▁泰米尔	-13420
▁厄瓜多尔	-13421
▁科学研究	-13422
▁蕃	-13423
▁用语	-13424
▁荔枝	-13425
▁西非	-13426
▁超新星	-13427
大赛	-13428
田县	-13429
▁晋身	-13430
▁混双	-13431
▁献给	-13432
▁蓟	-13433
▁中立	-13434
▁加装	-13435
▁芭蕾	-13436
▁第三季	-13437
▁Unicode	-13438
水平	-13439
▁皇族	-13440
▁重用	-13441
▁皮卡第	-13442
▁安平	-13443
▁征战	-13444
▁揭幕	-13445
▁方针	-13446
▁膨胀	-13447
▁金朝	-13448
▁雨水	-13449
▁Big	-13450
▁临海	-13451
▁并用	-13452
▁龙潭	-13453
▁康斯坦	-13454
▁瑙	-13455
▁一举	-13456
▁不肯	-13457
▁几次	-13458
▁原著	-13459
▁新石器	-13460
▁赎	-13461
▁下去	-13462
▁子弟	-13463
▁招待	-13464
▁是非	-13465
▁禅师	-13466
▁茱	-13467
▁上杉	-13468
▁兖州	-13469
▁国人	-13470
▁奥特	-13471
▁山下	-13472
▁科索	-13473
▁移至	-13474
▁葫芦	-13475
▁电视网	-13476
▁第十九	-13477
▁索马里	-13478
▁骑常侍	-13479
▁尺度	-13480
▁强行	-13481
▁早晨	-13482
▁吴国	-13483
▁Luc	-13484
▁1872	-13485
▁二十八年	-13486
气象	-13487
▁女婿	-13488
▁损伤	-13489
▁断裂	-13490
▁桌面	-13491
▁若瑟	-13492
▁蕨科	-13493
▁拾	-13494
夫区	-13495
▁双打	-13496
▁武警	-13497
六十	-13498
车辆	-13499
ita	-13500
▁告别	-13501
▁巡演	-13502
▁硫化	-13503
.75	-13504
▁哥本	-13505
▁满族	-13506
▁逃脱	-13507
▁配有	-13508
▁除去	-13509
work	-13510
▁1863	-13511
▁乙酸	-13512
▁摆脱	-13513
▁收敛	-13514
▁赛后	-13515
▁里约	-13516
▁第一场	-13517
▁Fire	-13518
▁二十七年	-13519
全食	-13520
内卢	-13521
华德	-13522
大臣	-13523
答腊	-13524
▁礼堂	-13525
▁考取	-13526
▁鲤鱼	-13527
▁日耳曼	-13528
▁游泳池	-13529
▁长篇小说	-13530
大夫	-13531
物院	-13532
och	-13533
▁王妃	-13534
▁生卒	-13535
▁租赁	-13536
▁跨国	-13537
▁146	-13538
▁Dan	-13539
▁Day	-13540
▁局局长	-13541
岛式	-13542
erv	-13543
▁亚视	-13544
▁墓葬	-13545
▁横向	-13546
▁瓦特	-13547
▁祖母	-13548
▁科长	-13549
▁附有	-13550
▁Dev	-13551
▁同位素	-13552
偏食	-13553
▁历官	-13554
▁新娘	-13555
▁143	-13556
▁京畿	-13557
▁修士	-13558
▁照相	-13559
▁瓦拉	-13560
▁该县	-13561
▁乌帕齐	-13562
▁里约热	-13563
▁莺	-13564
哈根	-13565
▁抵御	-13566
▁时所	-13567
▁沙湾	-13568
▁流派	-13569
▁Bus	-13570
▁都会区	-13571
▁哥本哈根	-13572
▁里约热内卢	-13573
▁驸	-13574
▁德鲁	-13575
▁环礁	-13576
▁玛格丽	-13577
▁葛拉汉地	-13578
学者	-13579
总理	-13580
莱德	-13581
▁丛林	-13582
▁内侧	-13583
▁变速	-13584
▁宫崎	-13585
▁底盘	-13586
▁投奔	-13587
▁抵制	-13588
▁政法	-13589
▁旅长	-13590
保护区	-13591
来纳州	-13592
▁克里斯蒂安	-13593
▁煎	-13594
信息	-13595
▁做成	-13596
▁山庄	-13597
金像奖	-13598
▁ref	-13599
▁奥斯卡金像奖	-13600
▁倚	-13601
101	-13602
▁少见	-13603
▁手工	-13604
▁谈话	-13605
▁重心	-13606
▁陵墓	-13607
▁沃尔夫	-13608
▁工商管理	-13609
近平	-13610
▁抢救	-13611
▁习近平	-13612
MB	-13613
德兰	-13614
运行	-13615
▁世俗	-13616
▁否决	-13617
▁埋葬	-13618
▁水质	-13619
▁渡边	-13620
▁落叶	-13621
▁逃出	-13622
▁锡金	-13623
▁魔鬼	-13624
▁威廉斯	-13625
▁兑	-13626
悠久	-13627
▁欧拉	-13628
▁汉代	-13629
▁首轮	-13630
浦路斯	-13631
▁301	-13632
▁Reg	-13633
▁org	-13634
▁得票率	-13635
▁历史悠久	-13636
▁塞浦路斯	-13637
▁迭	-13638
▁为底	-13639
▁佩里	-13640
▁导航	-13641
▁残留	-13642
▁汉斯	-13643
▁香港特别行政区	-13644
OP	-13645
▁券	-13646
▁抹	-13647
▁分院	-13648
▁官吏	-13649
▁自传	-13650
▁芜湖	-13651
▁4.2	-13652
诺斯	-13653
▁于东	-13654
▁州际	-13655
ater	-13656
▁供应商	-13657
▁副处长	-13658
▁候补委员	-13659
▁椰	-13660
文字	-13661
波器	-13662
▁EC	-13663
▁Po	-13664
▁大屿	-13665
▁对决	-13666
▁粤剧	-13667
▁迈阿	-13668
协商会议	-13669
▁自然保护区	-13670
巴尔	-13671
第斯	-13672
▁下表	-13673
▁报章	-13674
▁苏黎	-13675
▁214	-13676
▁Hot	-13677
▁三十六	-13678
▁集中营	-13679
▁1869	-13680
▁伊利诺伊	-13681
▁乃是	-13682
▁他任	-13683
▁坠毁	-13684
▁宝贝	-13685
▁布列	-13686
▁相对论	-13687
▁赛马会	-13688
▁West	-13689
Sc	-13690
▁et	-13691
▁售价	-13692
▁大片	-13693
▁时年	-13694
▁枪机	-13695
▁落选	-13696
▁弗拉基米尔	-13697
▁侧面	-13698
▁厨房	-13699
▁敦煌	-13700
▁越过	-13701
▁里克	-13702
▁锂	-13703
尼克	-13704
明帝	-13705
▁大明	-13706
▁拉曼	-13707
▁民居	-13708
▁链接	-13709
▁控制器	-13710
▁低温	-13711
▁庆长	-13712
▁江湖	-13713
▁沿着	-13714
▁答案	-13715
▁贝勒	-13716
▁中山路	-13717
▁台东县	-13718
▁幼稚园	-13719
▁总指挥	-13720
▁渊	-13721
ren	-13722
▁拘捕	-13723
▁武功	-13724
▁那不	-13725
▁玛利亚	-13726
工会	-13727
▁教员	-13728
▁凯尔特	-13729
▁蝙蝠侠	-13730
itter	-13731
▁枕	-13732
ora	-13733
▁卡车	-13734
▁台上	-13735
▁地级	-13736
▁限于	-13737
性恋	-13738
▁哈拉	-13739
▁多重	-13740
▁手上	-13741
▁纽约时报	-13742
▁辗	-13743
ano	-13744
▁士林	-13745
▁泛指	-13746
▁美女	-13747
▁领主	-13748
▁颈部	-13749
▁西南面	-13750
▁my	-13751
▁两队	-13752
▁活塞	-13753
▁牛奶	-13754
▁米哈	-13755
▁Associ	-13756
叠纪	-13757
王星	-13758
▁已婚	-13759
▁提拔	-13760
▁曹魏	-13761
▁机体	-13762
▁看出	-13763
▁鉴于	-13764
▁石勒苏	-13765
▁傍	-13766
▁人性	-13767
▁子集	-13768
▁收缩	-13769
▁疼痛	-13770
▁该项	-13771
阿拉伯	-13772
▁巧克力	-13773
▁民建联	-13774
▁Port	-13775
▁冤	-13776
▁中外	-13777
▁喷泉	-13778
▁益格	-13779
91	-13780
▁勉	-13781
▁在家	-13782
▁施泰	-13783
▁法制	-13784
▁渡过	-13785
▁马英	-13786
▁处处长	-13787
▁布莱克	-13788
▁迈阿密	-13789
▁沙特阿拉伯	-13790
公主	-13791
纪委	-13792
▁接着	-13793
▁立交	-13794
▁腓力	-13795
▁那不勒斯	-13796
▁上传	-13797
▁克什	-13798
▁客观	-13799
▁指派	-13800
▁狱中	-13801
▁野外	-13802
▁齿轮	-13803
▁浙江大学	-13804
主事	-13805
▁不见	-13806
▁葵涌	-13807
▁黄海	-13808
▁小时候	-13809
▁阿拉贡	-13810
▁青年队	-13811
大街	-13812
▁客货	-13813
▁片头	-13814
▁牛肉	-13815
▁西夏	-13816
▁美国空军	-13817
▁É	-13818
▁濮	-13819
▁谏	-13820
▁一轮	-13821
▁常有	-13822
▁情景	-13823
▁揭发	-13824
▁有力	-13825
历史上	-13826
▁预选赛	-13827
▁在历史上	-13828
▁基础设施	-13829
▁Up	-13830
▁戈罗	-13831
▁哈尔滨市	-13832
▁厉	-13833
▁保有	-13834
▁礼物	-13835
▁陈水	-13836
▁马特	-13837
▁4.0	-13838
▁90%	-13839
ta	-13840
▁睿	-13841
▁庄村	-13842
▁民兵	-13843
▁订购	-13844
▁3.6	-13845
▁George	-13846
▁渝	-13847
▁烦	-13848
耳草	-13849
▁之役	-13850
▁圣玛	-13851
▁家具	-13852
▁忠诚	-13853
▁暗中	-13854
▁莎草	-13855
▁邮件	-13856
▁首演	-13857
德里克	-13858
▁转向架	-13859
▁电报	-13860
▁领军	-13861
▁Bas	-13862
▁氢氧化	-13863
林根	-13864
▁两颗	-13865
▁会面	-13866
▁加斯	-13867
▁极度	-13868
▁花样	-13869
▁发布会	-13870
▁竞技场	-13871
万元	-13872
▁中为	-13873
▁古装	-13874
▁长乐	-13875
erson	-13876
▁塑造	-13877
▁拜访	-13878
▁水生	-13879
▁理学	-13880
▁离去	-13881
▁镇海	-13882
▁马斯	-13883
▁八达通	-13884
▁管理处	-13885
▁中华人民共和国政府	-13886
▁武藏	-13887
▁生死	-13888
▁红白	-13889
▁继而	-13890
▁金沙	-13891
▁147	-13892
▁亚洲杯	-13893
▁第一条	-13894
▁翻译成	-13895
法人	-13896
▁天主	-13897
▁斯普	-13898
▁解说	-13899
idae	-13900
▁寒冷	-13901
▁辩护	-13902
▁310	-13903
▁金像奖	-13904
▁胰	-13905
▁蔚	-13906
▁詹姆	-13907
▁静冈	-13908
▁鲁国	-13909
▁安德森	-13910
一世	-13911
▁两组	-13912
▁从前	-13913
▁刘氏	-13914
▁县令	-13915
▁大受	-13916
▁活化	-13917
▁终极	-13918
▁植物园	-13919
▁世子	-13920
▁光碟	-13921
▁冷战	-13922
▁凯撒	-13923
▁常州	-13924
▁新式	-13925
▁汉文	-13926
▁5.8	-13927
布罗	-13928
▁用法	-13929
▁甲午	-13930
▁唐太宗	-13931
▁妾	-13932
▁稽	-13933
▁之位	-13934
▁反派	-13935
▁奉行	-13936
▁柠檬	-13937
▁灾害	-13938
▁索引	-13939
▁高宗	-13940
ford	-13941
▁伯明翰	-13942
▁安第斯	-13943
▁公厘	-13944
▁大溪	-13945
▁巡视	-13946
▁并行	-13947
▁玄武	-13948
▁藻类	-13949
▁金球	-13950
▁门口	-13951
▁堵	-13952
出色	-13953
▁以免	-13954
▁定于	-13955
▁怪兽	-13956
▁承办	-13957
▁长尾	-13958
▁敌方	-13959
▁有毒	-13960
▁未婚	-13961
▁退化	-13962
▁陈述	-13963
▁马列	-13964
▁黑洞	-13965
▁Fla	-13966
▁奥克兰	-13967
▁性行为	-13968
▁萨尔瓦多	-13969
▁议会选举	-13970
▁徙	-13971
▁渴	-13972
▁IR	-13973
▁就要	-13974
▁邮票	-13975
▁208	-13976
▁正方形	-13977
sch	-13978
▁一至	-13979
▁塔吉	-13980
▁太宗	-13981
▁山本	-13982
▁手球	-13983
▁纠纷	-13984
▁船上	-13985
▁贵阳	-13986
▁犹太教	-13987
▁苏黎世	-13988
▁降水量	-13989
▁To	-13990
▁低压	-13991
▁所示	-13992
▁祖师	-13993
▁调用	-13994
▁选用	-13995
▁长史	-13996
▁绝大部分	-13997
▁尧	-13998
军事	-13999
001	-14000
▁SE	-14001
▁主板	-14002
▁警察局	-14003
▁武汉大学	-14004
▁嫩	-14005
▁一分	-14006
▁举例	-14007
▁分级	-14008
▁召唤	-14009
▁填海	-14010
▁墙壁	-14011
▁看守	-14012
发展	-14013
▁向南	-14014
▁无力	-14015
▁足利	-14016
▁龙胆	-14017
ific	-14018
加斯	-14019
▁帮忙	-14020
▁贝里	-14021
▁鸦片	-14022
▁黑山	-14023
▁设计者	-14024
▁Sing	-14025
▁佛罗伦萨	-14026
▁最高人民法院	-14027
▁茹	-14028
美术	-14029
▁一卷	-14030
▁常绿	-14031
▁衔接	-14032
▁ATP	-14033
▁1866	-14034
▁哥伦比亚大学	-14035
数据	-14036
邮件	-14037
▁Li	-14038
▁伊藤	-14039
▁宿主	-14040
▁玉山	-14041
▁电容	-14042
▁印度教	-14043
▁文尼察	-14044
▁研讨会	-14045
▁军阀	-14046
▁棕色	-14047
tern	-14048
▁MBC	-14049
▁大阪市	-14050
BL	-14051
▁不动	-14052
▁日渐	-14053
▁九江	-14054
▁加快	-14055
▁天线	-14056
▁烟草	-14057
▁肖像	-14058
▁中文系	-14059
▁第六届	-14060
▁西安市	-14061
▁	-14062
,	-14063
▃	-14064
。	-14065
的	-14066
1	-14067
0	-14068
年	-14069
2	-14070
、	-14071
一	-14072
▂	-14073
为	-14074
9	-14075
)	-14076
(	-14077
是	-14078
在	-14079
中	-14080
国	-14081
人	-14082
于	-14083
大	-14084
有	-14085
3	-14086
e	-14087
5	-14088
a	-14089
8	-14090
4	-14091
6	-14092
和	-14093
7	-14094
月	-14095
以	-14096
学	-14097
日	-14098
o	-14099
i	-14100
后	-14101
个	-14102
r	-14103
n	-14104
公	-14105
地	-14106
时	-14107
会	-14108
成	-14109
了	-14110
区	-14111
部	-14112
上	-14113
名	-14114
斯	-14115
行	-14116
出	-14117
t	-14118
不	-14119
尔	-14120
之	-14121
l	-14122
他	-14123
西	-14124
与	-14125
:	-14126
主	-14127
位	-14128
生	-14129
方	-14130
其	-14131
里	-14132
作	-14133
下	-14134
分	-14135
s	-14136
发	-14137
.	-14138
第	-14139
市	-14140
南	-14141
-	-14142
家	-14143
由	-14144
》	-14145
《	-14146
用	-14147
长	-14148
及	-14149
本	-14150
任	-14151
子	-14152
到	-14153
北	-14154
被	-14155
而	-14156
民	-14157
·	-14158
军	-14159
东	-14160
平	-14161
并	-14162
可	-14163
法	-14164
政	-14165
文	-14166
同	-14167
海	-14168
多	-14169
亚	-14170
来	-14171
高	-14172
u	-14173
特	-14174
台	-14175
加	-14176
口	-14177
德	-14178
员	-14179
道	-14180
自	-14181
克	-14182
动	-14183
面	-14184
山	-14185
代	-14186
物	-14187
等	-14188
三	-14189
利	-14190
开	-14191
新	-14192
度	-14193
建	-14194
这	-14195
前	-14196
最	-14197
「	-14198
」	-14199
电	-14200
所	-14201
h	-14202
对	-14203
路	-14204
小	-14205
拉	-14206
州	-14207
现	-14208
该	-14209
美	-14210
经	-14211
教	-14212
县	-14213
c	-14214
科	-14215
二	-14216
m	-14217
也	-14218
内	-14219
因	-14220
此	-14221
至	-14222
得	-14223
十	-14224
间	-14225
进	-14226
立	-14227
球	-14228
车	-14229
事	-14230
体	-14231
S	-14232
赛	-14233
入	-14234
马	-14235
d	-14236
世	-14237
种	-14238
机	-14239
A	-14240
过	-14241
业	-14242
天	-14243
理	-14244
工	-14245
要	-14246
合	-14247
总	-14248
布	-14249
“	-14250
化	-14251
”	-14252
当	-14253
省	-14254
镇	-14255
表	-14256
线	-14257
称	-14258
将	-14259
;	-14260
属	-14261
C	-14262
外	-14263
"	-14264
期	-14265
站	-14266
全	-14267
能	-14268
设	-14269
定	-14270
共	-14271
次	-14272
性	-14273
战	-14274
通	-14275
场	-14276
罗	-14277
制	-14278
使	-14279
士	-14280
式	-14281
安	-14282
米	-14283
队	-14284
城	-14285
但	-14286
数	-14287
目	-14288
系	-14289
院	-14290
王	-14291
水	-14292
都	-14293
者	-14294
原	-14295
司	-14296
两	-14297
重	-14298
运	-14299
明	-14300
治	-14301
比	-14302
基	-14303
尼	-14304
联	-14305
星	-14306
达	-14307
四	-14308
兰	-14309
M	-14310
华	-14311
金	-14312
相	-14313
格	-14314
巴	-14315
列	-14316
语	-14317
正	-14318
府	-14319
力	-14320
T	-14321
英	-14322
约	-14323
阿	-14324
女	-14325
组	-14326
号	-14327
g	-14328
元	-14329
或	-14330
选	-14331
港	-14332
河	-14333
首	-14334
林	-14335
统	-14336
B	-14337
常	-14338
演	-14339
计	-14340
曾	-14341
关	-14342
影	-14343
级	-14344
P	-14345
产	-14346
改	-14347
起	-14348
D	-14349
书	-14350
如	-14351
单	-14352
参	-14353
从	-14354
乐	-14355
卡	-14356
p	-14357
委	-14358
管	-14359
广	-14360
y	-14361
心	-14362
积	-14363
务	-14364
界	-14365
湾	-14366
始	-14367
I	-14368
提	-14369
形	-14370
视	-14371
接	-14372
色	-14373
维	-14374
流	-14375
门	-14376
江	-14377
向	-14378
香	-14379
f	-14380
们	-14381
量	-14382
夫	-14383
程	-14384
交	-14385
无	-14386
手	-14387
保	-14388
处	-14389
指	-14390
团	-14391
义	-14392
类	-14393
岛	-14394
太	-14395
包	-14396
就	-14397
字	-14398
五	-14399
实	-14400
音	-14401
意	-14402
议	-14403
村	-14404
辖	-14405
朝	-14406
则	-14407
然	-14408
集	-14409
型	-14410
获	-14411
身	-14412
古	-14413
品	-14414
史	-14415
E	-14416
直	-14417
校	-14418
乡	-14419
说	-14420
R	-14421
传	-14422
结	-14423
点	-14424
奥	-14425
洲	-14426
b	-14427
铁	-14428
受	-14429
N	-14430
图	-14431
已	-14432
变	-14433
万	-14434
党	-14435
京	-14436
社	-14437
师	-14438
张	-14439
k	-14440
石	-14441
导	-14442
应	-14443
光	-14444
L	-14445
专	-14446
官	-14447
空	-14448
G	-14449
龙	-14450
纪	-14451
回	-14452
曲	-14453
领	-14454
著	-14455
H	-14456
剧	-14457
带	-14458
O	-14459
别	-14460
展	-14461
清	-14462
命	-14463
普	-14464
纳	-14465
/	-14466
活	-14467
游	-14468
历	-14469
些	-14470
示	-14471
密	-14472
各	-14473
资	-14474
又	-14475
举	-14476
每	-14477
术	-14478
更	-14479
标	-14480
座	-14481
据	-14482
转	-14483
际	-14484
神	-14485
近	-14486
研	-14487
角	-14488
苏	-14489
记	-14490
认	-14491
族	-14492
节	-14493
职	-14494
局	-14495
只	-14496
还	-14497
伊	-14498
取	-14499
持	-14500
武	-14501
少	-14502
造	-14503
信	-14504
它	-14505
头	-14506
条	-14507
版	-14508
波	-14509
李	-14510
反	-14511
足	-14512
片	-14513
风	-14514
非	-14515
支	-14516
连	-14517
解	-14518
圣	-14519
阳	-14520
白	-14521
放	-14522
六	-14523
商	-14524
创	-14525
域	-14526
知	-14527
F	-14528
福	-14529
办	-14530
周	-14531
歌	-14532
报	-14533
今	-14534
即	-14535
v	-14536
情	-14537
件	-14538
塔	-14539
根	-14540
鱼	-14541
居	-14542
她	-14543
括	-14544
亲	-14545
花	-14546
收	-14547
初	-14548
究	-14549
往	-14550
先	-14551
父	-14552
离	-14553
街	-14554
击	-14555
陆	-14556
气	-14557
奖	-14558
没	-14559
季	-14560
汉	-14561
论	-14562
播	-14563
园	-14564
器	-14565
八	-14566
未	-14567
编	-14568
去	-14569
决	-14570
w	-14571
担	-14572
宗	-14573
湖	-14574
果	-14575
权	-14576
黄	-14577
亦	-14578
萨	-14579
瓦	-14580
网	-14581
帝	-14582
再	-14583
复	-14584
博	-14585
育	-14586
画	-14587
馆	-14588
观	-14589
划	-14590
洛	-14591
爱	-14592
田	-14593
青	-14594
质	-14595
男	-14596
段	-14597
吉	-14598
打	-14599
协	-14600
K	-14601
V	-14602
调	-14603
九	-14604
完	-14605
负	-14606
班	-14607
引	-14608
雷	-14609
川	-14610
构	-14611
母	-14612
置	-14613
营	-14614
副	-14615
客	-14616
兵	-14617
修	-14618
服	-14619
哈	-14620
威	-14621
派	-14622
且	-14623
较	-14624
责	-14625
兴	-14626
除	-14627
强	-14628
沙	-14629
戏	-14630
氏	-14631
边	-14632
环	-14633
土	-14634
许	-14635
源	-14636
见	-14637
随	-14638
装	-14639
项	-14640
印	-14641
护	-14642
存	-14643
勒	-14644
堂	-14645
查	-14646
伦	-14647
录	-14648
诺	-14649
超	-14650
艺	-14651
题	-14652
儿	-14653
速	-14654
欧	-14655
%	-14656
言	-14657
莱	-14658
陈	-14659
落	-14660
百	-14661
续	-14662
功	-14663
卫	-14664
死	-14665
鲁	-14666
七	-14667
希	-14668
另	-14669
皇	-14670
推	-14671
故	-14672
令	-14673
具	-14674
率	-14675
食	-14676
投	-14677
好	-14678
供	-14679
伯	-14680
W	-14681
争	-14682
给	-14683
试	-14684
宣	-14685
红	-14686
很	-14687
z	-14688
规	-14689
终	-14690
极	-14691
层	-14692
甲	-14693
托	-14694
份	-14695
升	-14696
热	-14697
筑	-14698
技	-14699
群	-14700
登	-14701
均	-14702
济	-14703
志	-14704
半	-14705
准	-14706
火	-14707
牙	-14708
乌	-14709
木	-14710
问	-14711
深	-14712
围	-14713
早	-14714
届	-14715
室	-14716
U	-14717
桥	-14718
模	-14719
容	-14720
塞	-14721
双	-14722
助	-14723
岁	-14724
样	-14725
航	-14726
黑	-14727
境	-14728
那	-14729
备	-14730
例	-14731
楼	-14732
限	-14733
整	-14734
易	-14735
众	-14736
写	-14737
医	-14738
老	-14739
拔	-14740
祖	-14741
奇	-14742
致	-14743
泰	-14744
刘	-14745
库	-14746
继	-14747
排	-14748
飞	-14749
央	-14750
越	-14751
求	-14752
埃	-14753
洋	-14754
贝	-14755
云	-14756
森	-14757
哥	-14758
己	-14759
案	-14760
宁	-14761
我	-14762
独	-14763
J	-14764
银	-14765
射	-14766
真	-14767
像	-14768
织	-14769
增	-14770
千	-14771
授	-14772
费	-14773
底	-14774
蒙	-14775
姆	-14776
范	-14777
席	-14778
冠	-14779
攻	-14780
_	-14781
息	-14782
农	-14783
住	-14784
证	-14785
声	-14786
考	-14787
杀	-14788
盟	-14789
景	-14790
象	-14791
配	-14792
评	-14793
需	-14794
恩	-14795
失	-14796
便	-14797
采	-14798
迪	-14799
康	-14800
佛	-14801
叶	-14802
才	-14803
施	-14804
占	-14805
习	-14806
状	-14807
辑	-14808
何	-14809
告	-14810
效	-14811
庄	-14812
料	-14813
索	-14814
病	-14815
曼	-14816
留	-14817
户	-14818
俄	-14819
顿	-14820
唱	-14821
草	-14822
宫	-14823
干	-14824
察	-14825
藏	-14826
郡	-14827
律	-14828
步	-14829
—	-14830
温	-14831
典	-14832
让	-14833
毛	-14834
夏	-14835
仍	-14836
防	-14837
瑞	-14838
素	-14839
响	-14840
胜	-14841
植	-14842
止	-14843
侧	-14844
载	-14845
韩	-14846
念	-14847
低	-14848
寺	-14849
算	-14850
永	-14851
感	-14852
测	-14853
想	-14854
友	-14855
隆	-14856
x	-14857
附	-14858
承	-14859
几	-14860
简	-14861
仅	-14862
降	-14863
移	-14864
余	-14865
丁	-14866
房	-14867
毕	-14868
话	-14869
词	-14870
远	-14871
思	-14872
梅	-14873
唐	-14874
革	-14875
丹	-14876
督	-14877
庆	-14878
澳	-14879
败	-14880
牌	-14881
把	-14882
尚	-14883
宝	-14884
左	-14885
封	-14886
消	-14887
显	-14888
守	-14889
富	-14890
批	-14891
嘉	-14892
章	-14893
注	-14894
莫	-14895
皮	-14896
票	-14897
堡	-14898
看	-14899
般	-14900
精	-14901
警	-14902
弹	-14903
厅	-14904
店	-14905
征	-14906
执	-14907
满	-14908
丽	-14909
着	-14910
做	-14911
述	-14912
照	-14913
蒂	-14914
依	-14915
控	-14916
态	-14917
含	-14918
读	-14919
监	-14920
拿	-14921
请	-14922
价	-14923
望	-14924
松	-14925
厂	-14926
坦	-14927
停	-14928
朗	-14929
弟	-14930
邦	-14931
春	-14932
细	-14933
退	-14934
岸	-14935
野	-14936
股	-14937
确	-14938
礼	-14939
杨	-14940
右	-14941
预	-14942
旅	-14943
闻	-14944
值	-14945
旧	-14946
似	-14947
快	-14948
候	-14949
帕	-14950
久	-14951
码	-14952
延	-14953
验	-14954
佳	-14955
端	-14956
吴	-14957
遗	-14958
斗	-14959
舰	-14960
售	-14961
识	-14962
走	-14963
抗	-14964
耶	-14965
船	-14966
孙	-14967
却	-14968
杰	-14969
临	-14970
弗	-14971
归	-14972
籍	-14973
树	-14974
顺	-14975
切	-14976
雄	-14977
旗	-14978
赫	-14979
拥	-14980
距	-14981
X	-14982
卢	-14983
优	-14984
压	-14985
齐	-14986
油	-14987
虽	-14988
短	-14989
破	-14990
兼	-14991
宋	-14992
麦	-14993
难	-14994
酒	-14995
雅	-14996
突	-14997
峰	-14998
轮	-14999
练	-15000
秀	-15001
摩	-15002
艾	-15003
菲	-15004
换	-15005
沃	-15006
断	-15007
灵	-15008
异	-15009
尾	-15010
绝	-15011
丰	-15012
泽	-15013
译	-15014
诗	-15015
序	-15016
什	-15017
势	-15018
枪	-15019
}	-15020
饰	-15021
{	-15022
末	-15023
晋	-15024
胡	-15025
况	-15026
必	-15027
津	-15028
若	-15029
杜	-15030
乘	-15031
溪	-15032
玛	-15033
杂	-15034
韦	-15035
核	-15036
钟	-15037
酸	-15038
荣	-15039
盖	-15040
贵	-15041
摄	-15042
杯	-15043
谷	-15044
顶	-15045
销	-15046
亡	-15047
架	-15048
微	-15049
良	-15050
判	-15051
役	-15052
轻	-15053
址	-15054
颗	-15055
驻	-15056
朱	-15057
药	-15058
迁	-15059
庙	-15060
尺	-15061
!	-15062
昌	-15063
喜	-15064
臣	-15065
送	-15066
血	-15067
频	-15068
严	-15069
善	-15070
玉	-15071
仁	-15072
阵	-15073
婚	-15074
伤	-15075
牛	-15076
逐	-15077
秘	-15078
输	-15079
板	-15080
梁	-15081
须	-15082
散	-15083
启	-15084
纽	-15085
署	-15086
鲜	-15087
庭	-15088
拍	-15089
坑	-15090
郎	-15091
晚	-15092
软	-15093
圆	-15094
栖	-15095
遭	-15096
隶	-15097
鳍	-15098
坡	-15099
兹	-15100
略	-15101
策	-15102
亿	-15103
束	-15104
|	-15105
养	-15106
背	-15107
阶	-15108
屋	-15109
轨	-15110
廷	-15111
劳	-15112
沿	-15113
舞	-15114
黎	-15115
假	-15116
谢	-15117
宾	-15118
Y	-15119
款	-15120
签	-15121
>	-15122
购	-15123
锦	-15124
追	-15125
差	-15126
冲	-15127
企	-15128
予	-15129
免	-15130
冰	-15131
货	-15132
岩	-15133
财	-15134
训	-15135
<	-15136
映	-15137
盛	-15138
凯	-15139
宽	-15140
殿	-15141
君	-15142
邻	-15143
险	-15144
介	-15145
讯	-15146
智	-15147
荷	-15148
培	-15149
材	-15150
仪	-15151
互	-15152
竹	-15153
夺	-15154
赤	-15155
纲	-15156
甚	-15157
郑	-15158
羽	-15159
敦	-15160
径	-15161
讲	-15162
佩	-15163
=	-15164
乔	-15165
蓝	-15166
浙	-15167
检	-15168
赵	-15169
烈	-15170
戈	-15171
穆	-15172
按	-15173
媒	-15174
拜	-15175
害	-15176
刺	-15177
罪	-15178
渐	-15179
漫	-15180
减	-15181
巨	-15182
眼	-15183
补	-15184
翰	-15185
暴	-15186
坐	-15187
童	-15188
皆	-15189
透	-15190
霍	-15191
爆	-15192
茨	-15193
混	-15194
卷	-15195
刊	-15196
释	-15197
探	-15198
奉	-15199
恒	-15200
救	-15201
替	-15202
洪	-15203
骨	-15204
献	-15205
尽	-15206
耳	-15207
途	-15208
诸	-15209
桑	-15210
符	-15211
夜	-15212
宇	-15213
徒	-15214
'	-15215
审	-15216
聚	-15217
适	-15218
陵	-15219
脉	-15220
扩	-15221
忠	-15222
刻	-15223
休	-15224
泉	-15225
某	-15226
幕	-15227
益	-15228
御	-15229
姓	-15230
额	-15231
爵	-15232
绿	-15233
巡	-15234
甘	-15235
挥	-15236
妻	-15237
雪	-15238
魏	-15239
援	-15240
废	-15241
盘	-15242
访	-15243
兄	-15244
描	-15245
徐	-15246
跟	-15247
鸟	-15248
固	-15249
络	-15250
贡	-15251
汇	-15252
旋	-15253
欢	-15254
孔	-15255
脑	-15256
借	-15257
靠	-15258
雨	-15259
玩	-15260
唯	-15261
吸	-15262
私	-15263
币	-15264
董	-15265
辆	-15266
震	-15267
遇	-15268
秋	-15269
镜	-15270
扎	-15271
操	-15272
够	-15273
竞	-15274
讨	-15275
觉	-15276
丝	-15277
魔	-15278
帮	-15279
毒	-15280
绍	-15281
惠	-15282
町	-15283
刑	-15284
横	-15285
墓	-15286
钱	-15287
佐	-15288
怀	-15289
乱	-15290
顾	-15291
充	-15292
舍	-15293
柏	-15294
刚	-15295
敌	-15296
赞	-15297
井	-15298
翻	-15299
你	-15300
肉	-15301
虫	-15302
返	-15303
禁	-15304
找	-15305
穿	-15306
娜	-15307
呈	-15308
辛	-15309
肯	-15310
逃	-15311
捕	-15312
课	-15313
辐	-15314
尤	-15315
撤	-15316
骑	-15317
篇	-15318
胞	-15319
绩	-15320
凤	-15321
葡	-15322
露	-15323
捷	-15324
仙	-15325
申	-15326
池	-15327
缘	-15328
默	-15329
绕	-15330
芬	-15331
滨	-15332
疗	-15333
谋	-15334
偏	-15335
虎	-15336
择	-15337
融	-15338
汽	-15339
寿	-15340
匹	-15341
奏	-15342
块	-15343
召	-15344
灭	-15345
宜	-15346
努	-15347
缩	-15348
呼	-15349
侯	-15350
潮	-15351
珠	-15352
健	-15353
琴	-15354
翼	-15355
犯	-15356
袭	-15357
齿	-15358
乙	-15359
泛	-15360
秦	-15361
墨	-15362
炮	-15363
氧	-15364
激	-15365
迹	-15366
徽	-15367
腊	-15368
听	-15369
缺	-15370
亮	-15371
锡	-15372
宪	-15373
绪	-15374
午	-15375
坚	-15376
衣	-15377
俱	-15378
买	-15379
函	-15380
待	-15381
孩	-15382
扬	-15383
淡	-15384
赖	-15385
乎	-15386
绘	-15387
麻	-15388
逝	-15389
圈	-15390
脱	-15391
昭	-15392
榜	-15393
订	-15394
戴	-15395
洞	-15396
曹	-15397
岭	-15398
辅	-15399
味	-15400
昂	-15401
彩	-15402
冈	-15403
毁	-15404
妹	-15405
奈	-15406
哲	-15407
+	-15408
萄	-15409
渡	-15410
冬	-15411
藤	-15412
叫	-15413
脚	-15414
莉	-15415
套	-15416
辽	-15417
急	-15418
侵	-15419
恶	-15420
否	-15421
概	-15422
享	-15423
础	-15424
隔	-15425
崇	-15426
梦	-15427
幼	-15428
危	-15429
菜	-15430
阴	-15431
剑	-15432
昆	-15433
Z	-15434
析	-15435
卖	-15436
铜	-15437
么	-15438
阁	-15439
迎	-15440
综	-15441
矿	-15442
俗	-15443
笔	-15444
廉	-15445
盐	-15446
吕	-15447
裁	-15448
纬	-15449
豪	-15450
钢	-15451
炸	-15452
郭	-15453
涅	-15454
损	-15455
招	-15456
誉	-15457
误	-15458
愿	-15459
寻	-15460
诉	-15461
迫	-15462
液	-15463
赏	-15464
尊	-15465
避	-15466
冷	-15467
柱	-15468
瑟	-15469
颁	-15470
迷	-15471
伍	-15472
浦	-15473
殖	-15474
裔	-15475
蛋	-15476
伐	-15477
菌	-15478
针	-15479
粉	-15480
侍	-15481
暗	-15482
跨	-15483
桃	-15484
册	-15485
毫	-15486
楚	-15487
染	-15488
j	-15489
赢	-15490
旁	-15491
抵	-15492
壁	-15493
硬	-15494
静	-15495
拟	-15496
繁	-15497
墙	-15498
剂	-15499
涉	-15500
览	-15501
谈	-15502
滑	-15503
紧	-15504
租	-15505
症	-15506
丘	-15507
埔	-15508
熙	-15509
仔	-15510
陕	-15511
疑	-15512
塘	-15513
恐	-15514
颜	-15515
截	-15516
坏	-15517
弃	-15518
错	-15519
乃	-15520
贸	-15521
陶	-15522
牧	-15523
辞	-15524
档	-15525
沈	-15526
付	-15527
偶	-15528
孝	-15529
孟	-15530
棋	-15531
振	-15532
螺	-15533
纸	-15534
棒	-15535
邮	-15536
邀	-15537
闭	-15538
轴	-15539
糖	-15540
伟	-15541
妇	-15542
宿	-15543
厦	-15544
汗	-15545
茶	-15546
灰	-15547
宅	-15548
蔡	-15549
零	-15550
倒	-15551
紫	-15552
沟	-15553
掌	-15554
浪	-15555
疆	-15556
篮	-15557
贤	-15558
阻	-15559
逊	-15560
莲	-15561
幸	-15562
碑	-15563
裂	-15564
汤	-15565
?	-15566
潜	-15567
敏	-15568
稳	-15569
纯	-15570
柳	-15571
莎	-15572
鼓	-15573
彼	-15574
龄	-15575
Q	-15576
驱	-15577
估	-15578
触	-15579
祭	-15580
灯	-15581
葬	-15582
隐	-15583
慈	-15584
萧	-15585
拆	-15586
亨	-15587
珍	-15588
脂	-15589
]	-15590
赴	-15591
暂	-15592
祥	-15593
晶	-15594
残	-15595
恋	-15596
纹	-15597
狱	-15598
患	-15599
勇	-15600
娱	-15601
尖	-15602
[	-15603
姐	-15604
键	-15605
靖	-15606
恢	-15607
衔	-15608
敬	-15609
犹	-15610
衡	-15611
厚	-15612
餐	-15613
勋	-15614
伴	-15615
畔	-15616
坛	-15617
柯	-15618
殊	-15619
峡	-15620
瓜	-15621
匈	-15622
烧	-15623
泊	-15624
贾	-15625
陷	-15626
障	-15627
驶	-15628
桂	-15629
雕	-15630
辉	-15631
迈	-15632
–	-15633
咸	-15634
械	-15635
燕	-15636
谱	-15637
葛	-15638
搭	-15639
鲤	-15640
句	-15641
牠	-15642
虚	-15643
折	-15644
仓	-15645
灾	-15646
硕	-15647
°	-15648
箭	-15649
储	-15650
枚	-15651
肃	-15652
遂	-15653
柴	-15654
锋	-15655
困	-15656
烟	-15657
跑	-15658
允	-15659
弱	-15660
撞	-15661
蛇	-15662
冯	-15663
跳	-15664
熟	-15665
潘	-15666
芳	-15667
答	-15668
陨	-15669
伏	-15670
彭	-15671
屯	-15672
邓	-15673
贺	-15674
鹿	-15675
幻	-15676
乾	-15677
』	-15678
『	-15679
详	-15680
禄	-15681
遍	-15682
叙	-15683
腹	-15684
〉	-15685
〈	-15686
赠	-15687
筹	-15688
刀	-15689
壳	-15690
伸	-15691
屿	-15692
税	-15693
斑	-15694
豆	-15695
旺	-15696
贯	-15697
纵	-15698
拒	-15699
凡	-15700
幅	-15701
鼠	-15702
弘	-15703
沉	-15704
抚	-15705
蒋	-15706
磁	-15707
涯	-15708
玄	-15709
羊	-15710
熊	-15711
促	-15712
挑	-15713
勤	-15714
溶	-15715
燃	-15716
覆	-15717
俊	-15718
厄	-15719
苦	-15720
梯	-15721
兽	-15722
～	-15723
鬼	-15724
倍	-15725
坎	-15726
吃	-15727
慕	-15728
拓	-15729
疾	-15730
仲	-15731
泥	-15732
朋	-15733
猎	-15734
番	-15735
奴	-15736
喀	-15737
慢	-15738
遣	-15739
鸡	-15740
叛	-15741
猪	-15742
胶	-15743
妮	-15744
藩	-15745
乳	-15746
驾	-15747
卿	-15748
杉	-15749
杭	-15750
屏	-15751
坊	-15752
亭	-15753
琳	-15754
q	-15755
芝	-15756
栽	-15757
岳	-15758
撒	-15759
罕	-15760
缅	-15761
贞	-15762
隧	-15763
袁	-15764
泳	-15765
蝶	-15766
甸	-15767
累	-15768
妃	-15769
饮	-15770
崎	-15771
仰	-15772
猫	-15773
浮	-15774
阮	-15775
诚	-15776
秒	-15777
赐	-15778
宏	-15779
粒	-15780
慧	-15781
狮	-15782
趣	-15783
怪	-15784
页	-15785
翁	-15786
叔	-15787
苗	-15788
插	-15789
寄	-15790
逢	-15791
谓	-15792
茂	-15793
詹	-15794
圳	-15795
湿	-15796
艇	-15797
彰	-15798
缓	-15799
卓	-15800
撰	-15801
枝	-15802
岗	-15803
忆	-15804
鉴	-15805
诞	-15806
炎	-15807
凭	-15808
é	-15809
晓	-15810
虑	-15811
搜	-15812
尉	-15813
挂	-15814
崔	-15815
邨	-15816
灌	-15817
厘	-15818
塑	-15819
舒	-15820
玻	-15821
违	-15822
迅	-15823
僧	-15824
笑	-15825
氢	-15826
券	-15827
旦	-15828
惊	-15829
疏	-15830
壮	-15831
艘	-15832
焦	-15833
洗	-15834
掉	-15835
碳	-15836
郊	-15837
跃	-15838
坪	-15839
痛	-15840
浅	-15841
仿	-15842
弥	-15843
枢	-15844
欲	-15845
擎	-15846
钦	-15847
凌	-15848
卜	-15849
祝	-15850
浩	-15851
饭	-15852
淮	-15853
锁	-15854
晨	-15855
滩	-15856
循	-15857
鸿	-15858
巧	-15859
蛛	-15860
床	-15861
丛	-15862
盗	-15863
傅	-15864
粗	-15865
鲶	-15866
翠	-15867
浓	-15868
润	-15869
斜	-15870
拳	-15871
彦	-15872
倾	-15873
串	-15874
柔	-15875
阅	-15876
粤	-15877
伙	-15878
潭	-15879
渔	-15880
耀	-15881
龟	-15882
纷	-15883
霸	-15884
歧	-15885
卒	-15886
戒	-15887
欣	-15888
励	-15889
寨	-15890
询	-15891
丈	-15892
衍	-15893
悬	-15894
珊	-15895
夷	-15896
帅	-15897
裕	-15898
吾	-15899
膜	-15900
肥	-15901
棘	-15902
荒	-15903
填	-15904
宙	-15905
菊	-15906
丧	-15907
娘	-15908
腾	-15909
窗	-15910
契	-15911
苑	-15912
搬	-15913
勃	-15914
壤	-15915
坝	-15916
恰	-15917
滚	-15918
丙	-15919
扮	-15920
链	-15921
婆	-15922
阪	-15923
捐	-15924
鲍	-15925
袖	-15926
吏	-15927
妈	-15928
垂	-15929
廊	-15930
罚	-15931
讷	-15932
彻	-15933
鹰	-15934
摇	-15935
陀	-15936
鲈	-15937
喷	-15938
堪	-15939
蕨	-15940
鼻	-15941
阔	-15942
旨	-15943
盾	-15944
箱	-15945
煤	-15946
洁	-15947
污	-15948
铺	-15949
仑	-15950
递	-15951
笼	-15952
湘	-15953
硫	-15954
侦	-15955
鳞	-15956
聘	-15957
朴	-15958
儒	-15959
姚	-15960
垒	-15961
挪	-15962
既	-15963
牵	-15964
貌	-15965
雀	-15966
姬	-15967
扰	-15968
&	-15969
胎	-15970
禅	-15971
辰	-15972
祀	-15973
抽	-15974
胸	-15975
吨	-15976
孤	-15977
芒	-15978
卵	-15979
姜	-15980
净	-15981
乏	-15982
庞	-15983
割	-15984
衰	-15985
惯	-15986
礁	-15987
剩	-15988
贫	-15989
贴	-15990
狗	-15991
氯	-15992
粮	-15993
悉	-15994
叉	-15995
嗣	-15996
稿	-15997
璃	-15998
杆	-15999
寒	-16000
兆	-16001
怒	-16002
琉	-16003
薄	-16004
荐	-16005
矩	-16006
尸	-16007
轰	-16008
闽	-16009
冒	-16010
脊	-16011
蟹	-16012
吐	-16013
狄	-16014
涵	-16015
翌	-16016
砲	-16017
诏	-16018
祠	-16019
踪	-16020
・	-16021
侠	-16022
泡	-16023
鹤	-16024
逆	-16025
扶	-16026
揭	-16027
铭	-16028
醇	-16029
凉	-16030
碍	-16031
弦	-16032
叠	-16033
堆	-16034
栏	-16035
狂	-16036
嫁	-16037
犬	-16038
屈	-16039
奎	-16040
刷	-16041
雍	-16042
汪	-16043
琼	-16044
胁	-16045
酶	-16046
脏	-16047
隋	-16048
奔	-16049
尹	-16050
磨	-16051
碎	-16052
矶	-16053
伪	-16054
癌	-16055
嘴	-16056
鸣	-16057
斤	-16058
措	-16059
狼	-16060
寮	-16061
卑	-16062
惟	-16063
曰	-16064
涌	-16065
韵	-16066
砖	-16067
颇	-16068
尝	-16069
谥	-16070
耗	-16071
添	-16072
薛	-16073
握	-16074
圭	-16075
抢	-16076
歇	-16077
碟	-16078
劝	-16079
逻	-16080
蒸	-16081
赋	-16082
迟	-16083
汝	-16084
栋	-16085
恭	-16086
稍	-16087
淘	-16088
疫	-16089
拼	-16090
株	-16091
遵	-16092
魂	-16093
丑	-16094
掘	-16095
凝	-16096
夕	-16097
赶	-16098
寸	-16099
粹	-16100
娃	-16101
奶	-16102
偷	-16103
─	-16104
邑	-16105
斋	-16106
铎	-16107
麟	-16108
腐	-16109
鼎	-16110
铃	-16111
丞	-16112
姊	-16113
崖	-16114
茵	-16115
砂	-16116
毗	-16117
狭	-16118
苯	-16119
袋	-16120
忍	-16121
逮	-16122
氨	-16123
宰	-16124
扁	-16125
肖	-16126
罢	-16127
襄	-16128
翔	-16129
甫	-16130
荆	-16131
蒲	-16132
茅	-16133
携	-16134
盆	-16135
蓬	-16136
涂	-16137
肌	-16138
迦	-16139
雌	-16140
幽	-16141
弯	-16142
褐	-16143
仇	-16144
侨	-16145
碧	-16146
虹	-16147
嫌	-16148
稻	-16149
吻	-16150
伽	-16151
斐	-16152
仕	-16153
纤	-16154
谭	-16155
辩	-16156
闪	-16157
藻	-16158
诊	-16159
禾	-16160
舌	-16161
~	-16162
怖	-16163
囊	-16164
滕	-16165
巢	-16166
俘	-16167
贩	-16168
妙	-16169
姻	-16170
醒	-16171
鸭	-16172
豫	-16173
栗	-16174
忙	-16175
渊	-16176
巷	-16177
押	-16178
夹	-16179
鄂	-16180
廖	-16181
悲	-16182
坂	-16183
蹈	-16184
寓	-16185
扫	-16186
唇	-16187
厝	-16188
庶	-16189
肠	-16190
敢	-16191
辟	-16192
债	-16193
猛	-16194
颈	-16195
愈	-16196
飓	-16197
ー	-16198
札	-16199
绳	-16200
×	-16201
毅	-16202
逼	-16203
沪	-16204
雇	-16205
胆	-16206
厢	-16207
闸	-16208
丸	-16209
劫	-16210
钻	-16211
屠	-16212
咨	-16213
摆	-16214
穷	-16215
拱	-16216
剪	-16217
腺	-16218
碱	-16219
葵	-16220
稣	-16221
谦	-16222
咖	-16223
闲	-16224
翅	-16225
擅	-16226
汰	-16227
腔	-16228
忽	-16229
趋	-16230
胺	-16231
汀	-16232
渠	-16233
炉	-16234
ン	-16235
亥	-16236
炼	-16237
瓶	-16238
暨	-16239
姑	-16240
梨	-16241
烯	-16242
魁	-16243
斩	-16244
邵	-16245
辨	-16246
矮	-16247
甜	-16248
宠	-16249
竟	-16250
抑	-16251
挖	-16252
蜜	-16253
巫	-16254
蜀	-16255
矛	-16256
榄	-16257
吹	-16258
喇	-16259
偿	-16260
桓	-16261
薇	-16262
饼	-16263
磷	-16264
绵	-16265
聪	-16266
溯	-16267
珀	-16268
暖	-16269
爷	-16270
埋	-16271
桐	-16272
邪	-16273
噶	-16274
椎	-16275
抱	-16276
郁	-16277
顷	-16278
淑	-16279
樱	-16280
谊	-16281
鹅	-16282
棕	-16283
芦	-16284
鲷	-16285
苹	-16286
舟	-16287
穴	-16288
崩	-16289
雾	-16290
蜂	-16291
邱	-16292
轩	-16293
亩	-16294
耕	-16295
堤	-16296
漠	-16297
柄	-16298
抓	-16299
扑	-16300
披	-16301
蕾	-16302
稀	-16303
澄	-16304
耐	-16305
怕	-16306
卧	-16307
烷	-16308
啡	-16309
逸	-16310
旬	-16311
帆	-16312
拖	-16313
贼	-16314
遥	-16315
沼	-16316
怡	-16317
茎	-16318
鲸	-16319
梵	-16320
劲	-16321
卸	-16322
募	-16323
虾	-16324
催	-16325
扣	-16326
倡	-16327
拨	-16328
奋	-16329
玲	-16330
荡	-16331
吧	-16332
鹏	-16333
棉	-16334
祯	-16335
鳄	-16336
冀	-16337
酷	-16338
脸	-16339
仆	-16340
豹	-16341
宛	-16342
爪	-16343
→	-16344
娶	-16345
帐	-16346
菩	-16347
霞	-16348
畅	-16349
筒	-16350
眉	-16351
跋	-16352
锐	-16353
尿	-16354
帽	-16355
忘	-16356
舱	-16357
铸	-16358
吞	-16359
祐	-16360
惜	-16361
*	-16362
琪	-16363
’	-16364
肤	-16365
宴	-16366
呎	-16367
惨	-16368
绥	-16369
瘤	-16370
坟	-16371
腿	-16372
踏	-16373
睡	-16374
婴	-16375
庚	-16376
驳	-16377
桌	-16378
陪	-16379
臀	-16380
窄	-16381
瑚	-16382
孕	-16383
弓	-16384
悠	-16385
颖	-16386
の	-16387
弄	-16388
诱	-16389
凶	-16390
‧	-16391
殷	-16392
肺	-16393
汶	-16394
蜥	-16395
肢	-16396
冕	-16397
裸	-16398
慎	-16399
腰	-16400
饶	-16401
猴	-16402
姿	-16403
茄	-16404
氟	-16405
朵	-16406
窝	-16407
颂	-16408
斥	-16409
兔	-16410
谐	-16411
忧	-16412
框	-16413
漏	-16414
夸	-16415
嵌	-16416
奠	-16417
涛	-16418
吊	-16419
伞	-16420
赌	-16421
扇	-16422
臂	-16423
骏	-16424
侣	-16425
妖	-16426
抄	-16427
掠	-16428
盈	-16429
滤	-16430
埠	-16431
肩	-16432
蝠	-16433
薪	-16434
凰	-16435
谁	-16436
瓷	-16437
尧	-16438
晴	-16439
辈	-16440
裴	-16441
昔	-16442
碰	-16443
贪	-16444
肿	-16445
浏	-16446
蚀	-16447
削	-16448
穗	-16449
肝	-16450
い	-16451
棱	-16452
肇	-16453
锥	-16454
炭	-16455
酮	-16456
狐	-16457
苔	-16458
а	-16459
哀	-16460
祈	-16461
α	-16462
蛤	-16463
悦	-16464
蛙	-16465
佑	-16466
肾	-16467
淳	-16468
$	-16469
橄	-16470
愤	-16471
戊	-16472
芭	-16473
荃	-16474
滋	-16475
骗	-16476
浸	-16477
寇	-16478
拘	-16479
绑	-16480
钩	-16481
爬	-16482
颠	-16483
屡	-16484
槽	-16485
芙	-16486
柬	-16487
旭	-16488
猜	-16489
阜	-16490
钠	-16491
戌	-16492
遮	-16493
溃	-16494
冢	-16495
哪	-16496
镶	-16497
忌	-16498
纺	-16499
誓	-16500
浆	-16501
爸	-16502
厥	-16503
萝	-16504
凸	-16505
恨	-16506
氮	-16507
尘	-16508
庵	-16509
‘	-16510
嫩	-16511
挡	-16512
鞋	-16513
抛	-16514
荫	-16515
麓	-16516
厨	-16517
缝	-16518
删	-16519
坞	-16520
岐	-16521
逾	-16522
苍	-16523
攀	-16524
蕃	-16525
鸦	-16526
搞	-16527
坤	-16528
庸	-16529
惧	-16530
奸	-16531
眠	-16532
践	-16533
锅	-16534
鳗	-16535
庇	-16536
掩	-16537
慰	-16538
鞍	-16539
窑	-16540
禧	-16541
橡	-16542
祸	-16543
扭	-16544
酯	-16545
璋	-16546
咏	-16547
贷	-16548
铝	-16549
坠	-16550
旱	-16551
椒	-16552
菱	-16553
鹃	-16554
竣	-16555
纠	-16556
谣	-16557
贬	-16558
蓄	-16559
喉	-16560
瓣	-16561
炳	-16562
勘	-16563
ん	-16564
喻	-16565
虞	-16566
缴	-16567
矢	-16568
擦	-16569
凹	-16570
涡	-16571
霖	-16572
骚	-16573
囚	-16574
柜	-16575
瑶	-16576
腓	-16577
榴	-16578
艳	-16579
赣	-16580
#	-16581
哺	-16582
熔	-16583
廿	-16584
镑	-16585
颌	-16586
鳉	-16587
朔	-16588
烂	-16589
枫	-16590
睛	-16591
牲	-16592
酱	-16593
踢	-16594
斌	-16595
瑜	-16596
楠	-16597
冻	-16598
淀	-16599
摧	-16600
漂	-16601
醉	-16602
辣	-16603
糕	-16604
棚	-16605
捉	-16606
翡	-16607
笃	-16608
椅	-16609
盲	-16610
钓	-16611
漳	-16612
讼	-16613
帖	-16614
牟	-16615
庐	-16616
秉	-16617
劣	-16618
о	-16619
垣	-16620
泄	-16621
悟	-16622
う	-16623
匠	-16624
昏	-16625
虏	-16626
聂	-16627
酰	-16628
梭	-16629
硝	-16630
漆	-16631
履	-16632
椭	-16633
盒	-16634
幢	-16635
舆	-16636
焚	-16637
怎	-16638
※	-16639
垦	-16640
铅	-16641
棠	-16642
瑙	-16643
娅	-16644
浴	-16645
沧	-16646
煌	-16647
勾	-16648
趁	-16649
摔	-16650
畿	-16651
秩	-16652
鲨	-16653
藓	-16654
′	-16655
壬	-16656
寅	-16657
徙	-16658
赔	-16659
á	-16660
湛	-16661
畴	-16662
欠	-16663
塌	-16664
讽	-16665
贿	-16666
澎	-16667
酿	-16668
挺	-16669
戚	-16670
挤	-16671
陇	-16672
纂	-16673
彬	-16674
鲉	-16675
唤	-16676
钧	-16677
疯	-16678
窦	-16679
懿	-16680
杏	-16681
匪	-16682
喝	-16683
谨	-16684
弧	-16685
汁	-16686
濑	-16687
绒	-16688
胃	-16689
怨	-16690
乞	-16691
笛	-16692
彗	-16693
橙	-16694
躲	-16695
饱	-16696
嘛	-16697
跌	-16698
и	-16699
孜	-16700
狸	-16701
帜	-16702
匣	-16703
畜	-16704
咀	-16705
濒	-16706
缸	-16707
剥	-16708
痕	-16709
闹	-16710
瀑	-16711
橘	-16712
碘	-16713
荔	-16714
梓	-16715
燥	-16716
泪	-16717
厉	-16718
撑	-16719
厌	-16720
镰	-16721
丢	-16722
惩	-16723
芽	-16724
玫	-16725
邹	-16726
阎	-16727
闵	-16728
僚	-16729
劾	-16730
哭	-16731
煮	-16732
鳃	-16733
驰	-16734
孚	-16735
绣	-16736
糊	-16737
墩	-16738
戎	-16739
禹	-16740
敖	-16741
黏	-16742
嫡	-16743
绅	-16744
蛮	-16745
浑	-16746
樟	-16747
缔	-16748
黛	-16749
韶	-16750
咒	-16751
噪	-16752
瑰	-16753
榆	-16754
巩	-16755
滴	-16756
蹄	-16757
饲	-16758
邸	-16759
剌	-16760
粘	-16761
乒	-16762
稽	-16763
滥	-16764
绰	-16765
彝	-16766
沛	-16767
侄	-16768
槟	-16769
棍	-16770
祷	-16771
雁	-16772
冶	-16773
酋	-16774
阀	-16775
锯	-16776
し	-16777
辱	-16778
欺	-16779
俞	-16780
奕	-16781
茹	-16782
浊	-16783
烤	-16784
瞄	-16785
汕	-16786
滇	-16787
泌	-16788
胀	-16789
吁	-16790
倪	-16791
岑	-16792
イ	-16793
谍	-16794
迄	-16795
牺	-16796
裹	-16797
颅	-16798
摘	-16799
闯	-16800
隙	-16801
萍	-16802
嘎	-16803
谕	-16804
缆	-16805
筋	-16806
か	-16807
缀	-16808
窟	-16809
牡	-16810
嫔	-16811
诛	-16812
悼	-16813
骤	-16814
拯	-16815
峻	-16816
啤	-16817
墅	-16818
荧	-16819
烦	-16820
癸	-16821
宦	-16822
蓉	-16823
涨	-16824
酵	-16825
萌	-16826
哇	-16827
寂	-16828
磅	-16829
歉	-16830
谏	-16831
羌	-16832
虐	-16833
稚	-16834
β	-16835
砌	-16836
擢	-16837
薯	-16838
堵	-16839
竖	-16840
惑	-16841
壶	-16842
碗	-16843
殉	-16844
诵	-16845
蕴	-16846
е	-16847
纱	-16848
墟	-16849
【	-16850
】	-16851
臭	-16852
饥	-16853
犁	-16854
嵩	-16855
钥	-16856
鳕	-16857
垃	-16858
硅	-16859
н	-16860
罩	-16861
í	-16862
孢	-16863
妥	-16864
吗	-16865
寡	-16866
畏	-16867
蒿	-16868
芯	-16869
蚁	-16870
懂	-16871
狩	-16872
茜	-16873
衙	-16874
舜	-16875
赦	-16876
钾	-16877
锣	-16878
檀	-16879
舅	-16880
焕	-16881
佣	-16882
圾	-16883
牢	-16884
拦	-16885
爽	-16886
窃	-16887
烹	-16888
鞭	-16889
ス	-16890
冥	-16891
莞	-16892
檐	-16893
乓	-16894
敷	-16895
婉	-16896
ü	-16897
蔚	-16898
淋	-16899
樊	-16900
炒	-16901
缪	-16902
叹	-16903
澜	-16904
祁	-16905
剿	-16906
妆	-16907
匡	-16908
肪	-16909
啦	-16910
歼	-16911
暑	-16912
梧	-16913
沁	-16914
钙	-16915
蜡	-16916
诈	-16917
龚	-16918
缉	-16919
鹦	-16920
伺	-16921
耿	-16922
霉	-16923
氛	-16924
挝	-16925
啸	-16926
睿	-16927
谜	-16928
芜	-16929
膨	-16930
莺	-16931
渭	-16932
淹	-16933
桶	-16934
舖	-16935
喙	-16936
驹	-16937
蕉	-16938
邢	-16939
娄	-16940
傲	-16941
阐	-16942
肆	-16943
р	-16944
勉	-16945
吋	-16946
钞	-16947
è	-16948
沂	-16949
焰	-16950
梗	-16951
蔽	-16952
胤	-16953
驼	-16954
た	-16955
拾	-16956
皖	-16957
聊	-16958
妓	-16959
匿	-16960
吓	-16961
趾	-16962
ā	-16963
粟	-16964
锤	-16965
酬	-16966
ル	-16967
蝴	-16968
猿	-16969
晖	-16970
渤	-16971
膀	-16972
垫	-16973
犀	-16974
咬	-16975
釜	-16976
醛	-16977
仗	-16978
峨	-16979
罐	-16980
簿	-16981
泗	-16982
蕊	-16983
裤	-16984
骂	-16985
缠	-16986
廓	-16987
弼	-16988
渗	-16989
绎	-16990
藉	-16991
擒	-16992
堀	-16993
艰	-16994
蜗	-16995
毓	-16996
厕	-16997
祇	-16998
蝉	-16999
潟	-17000
琦	-17001
萼	-17002
媛	-17003
迭	-17004
耆	-17005
淆	-17006
垩	-17007
倭	-17008
滞	-17009
黔	-17010
曝	-17011
沦	-17012
渝	-17013
蔬	-17014
呢	-17015
ó	-17016
哩	-17017
楷	-17018
鲀	-17019
甄	-17020
婷	-17021
摊	-17022
飘	-17023
竭	-17024
簧	-17025
骆	-17026
卯	-17027
於	-17028
郝	-17029
岱	-17030
匾	-17031
岬	-17032
苷	-17033
葱	-17034
悔	-17035
泾	-17036
卤	-17037
佥	-17038
蝙	-17039
汾	-17040
猩	-17041
榕	-17042
匀	-17043
烃	-17044
袜	-17045
莹	-17046
魅	-17047
と	-17048
掷	-17049
愉	-17050
蜘	-17051
ا	-17052
幌	-17053
愚	-17054
砍	-17055
ア	-17056
彪	-17057
ö	-17058
衷	-17059
埼	-17060
刹	-17061
剖	-17062
涩	-17063
驿	-17064
莽	-17065
妾	-17066
晰	-17067
喊	-17068
肚	-17069
诠	-17070
溥	-17071
杖	-17072
淫	-17073
胚	-17074
亏	-17075
灿	-17076
蔓	-17077
垄	-17078
褒	-17079
轿	-17080
酉	-17081
苞	-17082
雯	-17083
蔷	-17084
暹	-17085
肋	-17086
溉	-17087
洼	-17088
挽	-17089
祺	-17090
豚	-17091
芹	-17092
枣	-17093
罹	-17094
婿	-17095
琅	-17096
桦	-17097
壹	-17098
□	-17099
𫚥	-17100
僵	-17101
霜	-17102
侏	-17103
禽	-17104
钮	-17105
岚	-17106
骸	-17107
с	-17108
赚	-17109
馨	-17110
瞬	-17111
塾	-17112
俭	-17113
汐	-17114
蜒	-17115
闰	-17116
堰	-17117
泼	-17118
睦	-17119
膏	-17120
蜿	-17121
菁	-17122
弊	-17123
凑	-17124
な	-17125
眷	-17126
菇	-17127
羟	-17128
邯	-17129
岔	-17130
矣	-17131
宵	-17132
き	-17133
钝	-17134
蛾	-17135
舶	-17136
ま	-17137
谟	-17138
敛	-17139
膝	-17140
ラ	-17141
ト	-17142
娥	-17143
リ	-17144
沫	-17145
璧	-17146
账	-17147
讳	-17148
冤	-17149
敲	-17150
缮	-17151
敕	-17152
髓	-17153
苣	-17154
笠	-17155
鳅	-17156
り	-17157
俯	-17158
•	-17159
钉	-17160
裙	-17161
т	-17162
堕	-17163
苻	-17164
谅	-17165
氰	-17166
溢	-17167
惹	-17168
戟	-17169
哨	-17170
凿	-17171
脆	-17172
秃	-17173
蚤	-17174
麒	-17175
抬	-17176
羚	-17177
诬	-17178
巾	-17179
蚌	-17180
栅	-17181
狙	-17182
锂	-17183
吟	-17184
兑	-17185
瑾	-17186
磺	-17187
枯	-17188
扳	-17189
蝇	-17190
懋	-17191
丕	-17192
瘦	-17193
暱	-17194
磡	-17195
磐	-17196
饿	-17197
ジ	-17198
锌	-17199
晏	-17200
匙	-17201
晃	-17202
瑛	-17203
兖	-17204
霄	-17205
渣	-17206
溴	-17207
颚	-17208
奢	-17209
虔	-17210
く	-17211
ä	-17212
毙	-17213
蟾	-17214
皓	-17215
鹉	-17216
в	-17217
桨	-17218
勿	-17219
盔	-17220
谴	-17221
鸠	-17222
雏	-17223
赎	-17224
竺	-17225
卦	-17226
さ	-17227
〜	-17228
疼	-17229
芸	-17230
洽	-17231
ク	-17232
瀛	-17233
糙	-17234
娇	-17235
诃	-17236
л	-17237
抹	-17238
棺	-17239
雳	-17240
兀	-17241
み	-17242
埤	-17243
タ	-17244
萤	-17245
堇	-17246
琛	-17247
硼	-17248
芥	-17249
穹	-17250
您	-17251
衞	-17252
砾	-17253
к	-17254
咪	-17255
陡	-17256
祚	-17257
膛	-17258
羞	-17259
寝	-17260
忒	-17261
棵	-17262
μ	-17263
阙	-17264
酚	-17265
棣	-17266
荀	-17267
骄	-17268
瞻	-17269
峭	-17270
疲	-17271
兜	-17272
渥	-17273
茱	-17274
俩	-17275
郸	-17276
霹	-17277
枕	-17278
浚	-17279
焉	-17280
艮	-17281
骼	-17282
崛	-17283
鲑	-17284
熹	-17285
薰	-17286
〔	-17287
傍	-17288
〕	-17289
嗜	-17290
胖	-17291
翟	-17292
渴	-17293
箕	-17294
お	-17295
隍	-17296
啊	-17297
鑫	-17298
蚕	-17299
袍	-17300
玺	-17301
恪	-17302
に	-17303
摸	-17304
こ	-17305
泵	-17306
吡	-17307
捞	-17308
辜	-17309
稠	-17310
锈	-17311
斧	-17312
顽	-17313
沸	-17314
帛	-17315
揽	-17316
搁	-17317
恼	-17318
曜	-17319
绸	-17320
馈	-17321
孵	-17322
觅	-17323
腕	-17324
曙	-17325
谬	-17326
莓	-17327
醚	-17328
挫	-17329
谎	-17330
芋	-17331
耻	-17332
鹭	-17333
搏	-17334
臧	-17335
梳	-17336
捧	-17337
灶	-17338
ち	-17339
鄞	-17340
衬	-17341
韧	-17342
酪	-17343
晤	-17344
倚	-17345
峙	-17346
潼	-17347
镍	-17348
哉	-17349
沐	-17350
栈	-17351
戍	-17352
ッ	-17353
杠	-17354
皋	-17355
蔗	-17356
帘	-17357
蛱	-17358
黜	-17359
萃	-17360
昊	-17361
ら	-17362
粪	-17363
泸	-17364
峪	-17365
柠	-17366
皂	-17367
淇	-17368
鸽	-17369
槐	-17370
鞘	-17371
淞	-17372
颐	-17373
鲽	-17374
抒	-17375
が	-17376
は	-17377
洒	-17378
鞑	-17379
纶	-17380
蒜	-17381
汞	-17382
莆	-17383
玮	-17384
−	-17385
龛	-17386
刃	-17387
绶	-17388
巳	-17389
靶	-17390
矽	-17391
葫	-17392
る	-17393
掀	-17394
幡	-17395
淄	-17396
坜	-17397
娟	-17398
芮	-17399
桩	-17400
乍	-17401
溜	-17402
篡	-17403
邺	-17404
镖	-17405
诰	-17406
恺	-17407
曦	-17408
虱	-17409
煎	-17410
椰	-17411
汴	-17412
靼	-17413
庾	-17414
衢	-17415
咽	-17416
琵	-17417
怜	-17418
柑	-17419
衫	-17420
佚	-17421
崁	-17422
沥	-17423
ل	-17424
隅	-17425
鳚	-17426
檬	-17427
じ	-17428
钊	-17429
禺	-17430
慌	-17431
敞	-17432
鼬	-17433
屑	-17434
濠	-17435
シ	-17436
恕	-17437
彤	-17438
萱	-17439
â	-17440
镁	-17441
涧	-17442
桢	-17443
逗	-17444
绮	-17445
昼	-17446
埗	-17447
炬	-17448
嘱	-17449
妍	-17450
绞	-17451
蓟	-17452
楞	-17453
膳	-17454
糯	-17455
π	-17456
赁	-17457
偕	-17458
琶	-17459
湄	-17460
俸	-17461
妄	-17462
铀	-17463
羁	-17464
苇	-17465
あ	-17466
倩	-17467
泻	-17468
缚	-17469
晒	-17470
嘲	-17471
奚	-17472
翊	-17473
靴	-17474
肽	-17475
γ	-17476
烛	-17477
锻	-17478
佬	-17479
掣	-17480
侬	-17481
皱	-17482
羲	-17483
蚊	-17484
睹	-17485
蝎	-17486
驸	-17487
裘	-17488
鸾	-17489
斡	-17490
杞	-17491
鸥	-17492
颍	-17493
暮	-17494
榈	-17495
晕	-17496
苟	-17497
濮	-17498
醋	-17499
夭	-17500
辗	-17501
鳎	-17502
殴	-17503
É	-17504
霆	-17505
胰	-17506
糟	-17507
笨	-17508
僖	-17509
噬	-17510
沽	-17511
啶	-17512
筛	-17513
陂	-17514
胥	-17515
铠	-17516
撕	-17517
毘	-17518
溺	-17519
チ	-17520
臼	-17521
ç	-17522
绫	-17523
麾	-17524
躯	-17525
钵	-17526
蕙	-17527
卉	-17528
泣	-17529
竿	-17530
笋	-17531
燮	-17532
驯	-17533
煞	-17534
隘	-17535
晟	-17536
莒	-17537
漕	-17538
稷	-17539
焊	-17540
痴	-17541
篆	-17542
翘	-17543
绛	-17544
磊	-17545
伶	-17546
幂	-17547
弈	-17548
矫	-17549
铬	-17550
カ	-17551
褚	-17552
孺	-17553
疹	-17554
芷	-17555
饪	-17556
茛	-17557
恤	-17558
ロ	-17559
栓	-17560
峇	-17561
铵	-17562
寰	-17563
贱	-17564
盎	-17565
赂	-17566
靡	-17567
珪	-17568
泷	-17569
憾	-17570
捍	-17571
馏	-17572
鮨	-17573
炫	-17574
嘻	-17575
つ	-17576
祂	-17577
羧	-17578
旷	-17579
诅	-17580
冉	-17581
慨	-17582
桔	-17583
陌	-17584
舵	-17585
铨	-17586
憩	-17587
砷	-17588
懒	-17589
沮	-17590
篷	-17591
骁	-17592
圩	-17593
姨	-17594
簇	-17595
マ	-17596
衮	-17597
褶	-17598
陋	-17599
ε	-17600
σ	-17601
甥	-17602
捆	-17603
殡	-17604
陛	-17605
雉	-17606
昙	-17607
淤	-17608
韬	-17609
颊	-17610
镀	-17611
だ	-17612
蚜	-17613
挟	-17614
揆	-17615
撃	-17616
炀	-17617
や	-17618
馅	-17619
娴	-17620
俾	-17621
椿	-17622
拐	-17623
埕	-17624
藔	-17625
ο	-17626
沅	-17627
帧	-17628
圻	-17629
炯	-17630
譬	-17631
锰	-17632
筠	-17633
瞩	-17634
媚	-17635
烘	-17636
珂	-17637
铲	-17638
鳌	-17639
炽	-17640
沾	-17641
妨	-17642
鹫	-17643
λ	-17644
侗	-17645
勐	-17646
霰	-17647
瘟	-17648
昱	-17649
呆	-17650
ú	-17651
愁	-17652
豁	-17653
洮	-17654
煽	-17655
刮	-17656
レ	-17657
悚	-17658
毯	-17659
钛	-17660
傣	-17661
拌	-17662
贮	-17663
琮	-17664
岂	-17665
饷	-17666
悍	-17667
樵	-17668
澈	-17669
攸	-17670
腥	-17671
栉	-17672
钰	-17673
吵	-17674
绢	-17675
ド	-17676
瓮	-17677
鲱	-17678
夔	-17679
渲	-17680
莘	-17681
瀚	-17682
甬	-17683
跆	-17684
て	-17685
贻	-17686
潍	-17687
舷	-17688
跤	-17689
у	-17690
卅	-17691
镐	-17692
抨	-17693
喂	-17694
汲	-17695
砸	-17696
エ	-17697
蠕	-17698
д	-17699
铉	-17700
哆	-17701
喃	-17702
葆	-17703
±	-17704
挠	-17705
苓	-17706
氦	-17707
侮	-17708
轭	-17709
檗	-17710
萎	-17711
邕	-17712
瞿	-17713
荚	-17714
槛	-17715
ρ	-17716
蜴	-17717
薨	-17718
茉	-17719
叱	-17720
谚	-17721
乂	-17722
侃	-17723
媳	-17724
蓼	-17725
阱	-17726
@	-17727
肛	-17728
驴	-17729
○	-17730
翎	-17731
楔	-17732
谒	-17733
辍	-17734
掖	-17735
濬	-17736
骠	-17737
キ	-17738
掳	-17739
瞒	-17740
瘾	-17741
炜	-17742
隼	-17743
跪	-17744
崭	-17745
圃	-17746
胱	-17747
腻	-17748
ν	-17749
傀	-17750
妒	-17751
羡	-17752
辕	-17753
枋	-17754
笙	-17755
阡	-17756
浒	-17757
睐	-17758
鹊	-17759
フ	-17760
à	-17761
桅	-17762
拷	-17763
唑	-17764
桧	-17765
羰	-17766
銮	-17767
柿	-17768
瓯	-17769
膺	-17770
朽	-17771
忻	-17772
ェ	-17773
扯	-17774
钏	-17775
浜	-17776
诡	-17777
昧	-17778
邝	-17779
聋	-17780
も	-17781
耦	-17782
ô	-17783
剃	-17784
挣	-17785
骇	-17786
毋	-17787
戮	-17788
湳	-17789
τ	-17790
傻	-17791
儡	-17792
潞	-17793
〇	-17794
栾	-17795
瘫	-17796
绯	-17797
钴	-17798
瞳	-17799
闷	-17800
斛	-17801
м	-17802
釉	-17803
籽	-17804
刁	-17805
诫	-17806
搅	-17807
逵	-17808
匝	-17809
溧	-17810
拢	-17811
ن	-17812
昕	-17813
洙	-17814
酥	-17815
猷	-17816
脾	-17817
焘	-17818
グ	-17819
蝽	-17820
姪	-17821
眶	-17822
畸	-17823
踩	-17824
す	-17825
丫	-17826
侈	-17827
啮	-17828
宸	-17829
歪	-17830
螯	-17831
ι	-17832
筝	-17833
赈	-17834
迥	-17835
ミ	-17836
蚂	-17837
悄	-17838
坳	-17839
悖	-17840
扔	-17841
灼	-17842
咎	-17843
槃	-17844
琐	-17845
ر	-17846
巅	-17847
肴	-17848
ょ	-17849
挚	-17850
𩾌	-17851
坍	-17852
嶋	-17853
蟒	-17854
皈	-17855
濂	-17856
苛	-17857
コ	-17858
哑	-17859
ひ	-17860
榔	-17861
琥	-17862
靳	-17863
ς	-17864
𩽾	-17865
瓒	-17866
蔑	-17867
莪	-17868
昶	-17869
魮	-17870
硒	-17871
貂	-17872
俨	-17873
δ	-17874
涿	-17875
趟	-17876
涤	-17877
栎	-17878
臻	-17879
鸢	-17880
逍	-17881
壕	-17882
拂	-17883
偃	-17884
睾	-17885
婺	-17886
尻	-17887
蚬	-17888
鹛	-17889
鲫	-17890
岷	-17891
ω	-17892
叡	-17893
螂	-17894
浇	-17895
☆	-17896
オ	-17897
槭	-17898
腌	-17899
砚	-17900
氹	-17901
琰	-17902
盼	-17903
眺	-17904
わ	-17905
で	-17906
潢	-17907
荥	-17908
浔	-17909
锚	-17910
缕	-17911
吠	-17912
咤	-17913
鳖	-17914
歙	-17915
粥	-17916
й	-17917
菅	-17918
ي	-17919
鲆	-17920
佟	-17921
畑	-17922
倦	-17923
啄	-17924
婢	-17925
觐	-17926
躁	-17927
煜	-17928
滦	-17929
闾	-17930
郢	-17931
っ	-17932
パ	-17933
晦	-17934
讶	-17935
疮	-17936
呕	-17937
愧	-17938
鲿	-17939
熏	-17940
璜	-17941
炔	-17942
馥	-17943
谤	-17944
扈	-17945
弋	-17946
辙	-17947
筿	-17948
撼	-17949
垮	-17950
麝	-17951
窥	-17952
咳	-17953
诀	-17954
捣	-17955
よ	-17956
瑕	-17957
蛟	-17958
歳	-17959
谯	-17960
贲	-17961
镛	-17962
痪	-17963
旻	-17964
け	-17965
掸	-17966
殆	-17967
窜	-17968
裳	-17969
罂	-17970
奘	-17971
巽	-17972
璇	-17973
璟	-17974
颤	-17975
蒴	-17976
仄	-17977
遴	-17978
れ	-17979
嫉	-17980
鼩	-17981
聆	-17982
胪	-17983
皿	-17984
轼	-17985
僻	-17986
墘	-17987
鹘	-17988
璞	-17989
飙	-17990
م	-17991
渎	-17992
渚	-17993
涪	-17994
ャ	-17995
颓	-17996
叻	-17997
襟	-17998
叭	-17999
耍	-18000
魄	-18001
朕	-18002
铂	-18003
咲	-18004
碉	-18005
灏	-18006
恳	-18007
亘	-18008
讹	-18009
巍	-18010
阇	-18011
サ	-18012
禀	-18013
\	-18014
弩	-18015
捡	-18016
碁	-18017
篱	-18018
璐	-18019
哗	-18020
遏	-18021
プ	-18022
虢	-18023
絮	-18024
ī	-18025
祜	-18026
剔	-18027
婕	-18028
遁	-18029
蜱	-18030
卞	-18031
岖	-18032
г	-18033
妳	-18034
鸫	-18035
嫂	-18036
忏	-18037
沱	-18038
胄	-18039
谛	-18040
涟	-18041
淖	-18042
耸	-18043
え	-18044
盏	-18045
曳	-18046
テ	-18047
宕	-18048
藜	-18049
‰	-18050
柚	-18051
烽	-18052
喘	-18053
弑	-18054
犍	-18055
狠	-18056
钨	-18057
峦	-18058
滁	-18059
瑄	-18060
腋	-18061
佃	-18062
熵	-18063
ナ	-18064
を	-18065
冗	-18066
旌	-18067
瞰	-18068
ê	-18069
癫	-18070
و	-18071
伎	-18072
滔	-18073
跻	-18074
疟	-18075
η	-18076
ろ	-18077
鄱	-18078
颉	-18079
吼	-18080
诣	-18081
纥	-18082
擂	-18083
炱	-18084
粲	-18085
炙	-18086
荠	-18087
骥	-18088
堺	-18089
缙	-18090
ウ	-18091
ë	-18092
骧	-18093
κ	-18094
š	-18095
拙	-18096
樽	-18097
妊	-18098
艋	-18099
戛	-18100
秽	-18101
鸮	-18102
淦	-18103
ニ	-18104
匆	-18105
岘	-18106
蘑	-18107
劭	-18108
荟	-18109
鹟	-18110
舺	-18111
泓	-18112
恬	-18113
荨	-18114
ム	-18115
琏	-18116
肘	-18117
蟠	-18118
郴	-18119
я	-18120
饵	-18121
奄	-18122
氓	-18123
葺	-18124
橇	-18125
蕈	-18126
孀	-18127
蝰	-18128
荼	-18129
汛	-18130
叮	-18131
捏	-18132
昵	-18133
檎	-18134
乖	-18135
沌	-18136
鮠	-18137
丐	-18138
澧	-18139
迺	-18140
捻	-18141
榨	-18142
铳	-18143
祉	-18144
珉	-18145
躺	-18146
苳	-18147
^	-18148
筲	-18149
烨	-18150
珲	-18151
せ	-18152
亳	-18153
疣	-18154
冼	-18155
潇	-18156
蝗	-18157
嗅	-18158
诽	-18159
妤	-18160
龈	-18161
筱	-18162
钳	-18163
熄	-18164
茫	-18165
ィ	-18166
屎	-18167
荻	-18168
掺	-18169
醯	-18170
拇	-18171
醮	-18172
С	-18173
バ	-18174
羯	-18175
杵	-18176
ゅ	-18177
ブ	-18178
佘	-18179
暇	-18180
鮡	-18181
秤	-18182
簷	-18183
脐	-18184
鞠	-18185
诲	-18186
泮	-18187
遐	-18188
湍	-18189
鳢	-18190
鸯	-18191
孛	-18192
ビ	-18193
梢	-18194
讫	-18195
靓	-18196
鹬	-18197
脖	-18198
燧	-18199
θ	-18200
缢	-18201
俳	-18202
惰	-18203
φ	-18204
亢	-18205
扼	-18206
镕	-18207
鄙	-18208
摹	-18209
琨	-18210
ب	-18211
诹	-18212
劈	-18213
蠢	-18214
秧	-18215
锺	-18216
ュ	-18217
崧	-18218
脷	-18219
ñ	-18220
嚣	-18221
愍	-18222
呐	-18223
岙	-18224
慷	-18225
熬	-18226
怠	-18227
羹	-18228
肄	-18229
嬉	-18230
腈	-18231
兮	-18232
惕	-18233
枭	-18234
槌	-18235
赃	-18236
髻	-18237
鹳	-18238
п	-18239
洱	-18240
玖	-18241
囱	-18242
踝	-18243
鲡	-18244
黯	-18245
胫	-18246
蛭	-18247
昨	-18248
猕	-18249
懈	-18250
晔	-18251
デ	-18252
玟	-18253
窖	-18254
鱿	-18255
歆	-18256
笈	-18257
脇	-18258
菀	-18259
ダ	-18260
ß	-18261
凳	-18262
癖	-18263
耽	-18264
蚓	-18265
挨	-18266
鯙	-18267
鳝	-18268
佤	-18269
畠	-18270
メ	-18271
佗	-18272
衅	-18273
ガ	-18274
钗	-18275
惇	-18276
栃	-18277
睢	-18278
肱	-18279
鬣	-18280
鲂	-18281
鼐	-18282
躬	-18283
蜓	-18284
邳	-18285
钺	-18286
锑	-18287
嗓	-18288
撇	-18289
牒	-18290
骅	-18291
骰	-18292
妲	-18293
珮	-18294
珑	-18295
骊	-18296
琬	-18297
俏	-18298
苋	-18299
呤	-18300
迂	-18301
匮	-18302
筵	-18303
ч	-18304
矗	-18305
酌	-18306
阗	-18307
澡	-18308
嬴	-18309
歹	-18310
呀	-18311
娑	-18312
碌	-18313
蓓	-18314
钼	-18315
螨	-18316
谪	-18317
轶	-18318
娠	-18319
杲	-18320
垅	-18321
碇	-18322
鼹	-18323
缨	-18324
澍	-18325
茸	-18326
螈	-18327
£	-18328
驮	-18329
灸	-18330
璘	-18331
纾	-18332
逅	-18333
ゆ	-18334
渍	-18335
隽	-18336
鲛	-18337
痒	-18338
崴	-18339
珈	-18340
邂	-18341
鸳	-18342
亵	-18343
杓	-18344
蜻	-18345
锄	-18346
寞	-18347
祗	-18348
邬	-18349
凛	-18350
赉	-18351
嚼	-18352
浣	-18353
瞭	-18354
缎	-18355
醍	-18356
覃	-18357
颔	-18358
叩	-18359
槿	-18360
矾	-18361
碾	-18362
睽	-18363
锭	-18364
叟	-18365
姥	-18366
楹	-18367
烁	-18368
忱	-18369
蕲	-18370
蛎	-18371
め	-18372
讥	-18373
贰	-18374
揉	-18375
疡	-18376
郧	-18377
钒	-18378
憎	-18379
獭	-18380
恂	-18381
ã	-18382
蔻	-18383
醐	-18384
б	-18385
唾	-18386
沔	-18387
铿	-18388
Δ	-18389
蝮	-18390
酗	-18391
滘	-18392
蠡	-18393
洄	-18394
钡	-18395
芎	-18396
钯	-18397
د	-18398
痫	-18399
糸	-18400
ь	-18401
咐	-18402
绚	-18403
茴	-18404
嘌	-18405
П	-18406
闺	-18407
ə	-18408
庠	-18409
黍	-18410
阆	-18411
磋	-18412
苴	-18413
萸	-18414
谿	-18415
赓	-18416
柩	-18417
瑠	-18418
К	-18419
抖	-18420
莅	-18421
ō	-18422
漩	-18423
鲲	-18424
ı	-18425
尬	-18426
扒	-18427
醴	-18428
铮	-18429
盂	-18430
堑	-18431
楣	-18432
煦	-18433
⁄	-18434
怯	-18435
ハ	-18436
咕	-18437
颢	-18438
撮	-18439
榛	-18440
烫	-18441
凋	-18442
邛	-18443
洵	-18444
琢	-18445
勖	-18446
漱	-18447
甩	-18448
稼	-18449
阉	-18450
ы	-18451
ご	-18452
帚	-18453
蛹	-18454
挞	-18455
柘	-18456
畲	-18457
ど	-18458
硖	-18459
聿	-18460
倘	-18461
箔	-18462
窒	-18463
缇	-18464
锟	-18465
辄	-18466
挛	-18467
哮	-18468
蚝	-18469
迳	-18470
咯	-18471
粱	-18472
轧	-18473
廍	-18474
س	-18475
寛	-18476
桁	-18477
靛	-18478
犊	-18479
ゃ	-18480
娼	-18481
湟	-18482
焙	-18483
豌	-18484
ふ	-18485
喆	-18486
繇	-18487
橱	-18488
腭	-18489
痊	-18490
筏	-18491
韭	-18492
恃	-18493
猬	-18494
罔	-18495
唆	-18496
榭	-18497
菠	-18498
俐	-18499
恽	-18500
膦	-18501
邾	-18502
霓	-18503
ョ	-18504
昀	-18505
皎	-18506
舫	-18507
鲹	-18508
嘧	-18509
蜍	-18510
徘	-18511
ū	-18512
凄	-18513
悯	-18514
蔺	-18515
锷	-18516
馀	-18517
ば	-18518
毡	-18519
顼	-18520
髅	-18521
弛	-18522
佼	-18523
惶	-18524
僭	-18525
谔	-18526
隗	-18527
嵊	-18528
祎	-18529
啰	-18530
炖	-18531
県	-18532
า	-18533
娩	-18534
徊	-18535
殇	-18536
瓘	-18537
鄢	-18538
骞	-18539
溅	-18540
荪	-18541
菏	-18542
宥	-18543
栢	-18544
鲳	-18545
𫚭	-18546
漾	-18547
戸	-18548
燊	-18549
鲭	-18550
ø	-18551
戳	-18552
掾	-18553
珞	-18554
氐	-18555
狡	-18556
萩	-18557
蛊	-18558
脓	-18559
啉	-18560
瑭	-18561
踞	-18562
モ	-18563
啼	-18564
孪	-18565
č	-18566
弁	-18567
榻	-18568
镳	-18569
з	-18570
㑩	-18571
焯	-18572
珩	-18573
徳	-18574
稔	-18575
ć	-18576
υ	-18577
殁	-18578
姗	-18579
寥	-18580
ズ	-18581
娣	-18582
玑	-18583
迩	-18584
孽	-18585
庑	-18586
骈	-18587
郤	-18588
镉	-18589
匐	-18590
酐	-18591
А	-18592
螃	-18593
М	-18594
尴	-18595
猝	-18596
嵯	-18597
箴	-18598
鳟	-18599
悌	-18600
轸	-18601
鞅	-18602
鬃	-18603
枉	-18604
糜	-18605
呜	-18606
咙	-18607
屁	-18608
彧	-18609
檄	-18610
铣	-18611
喵	-18612
嫦	-18613
掏	-18614
ほ	-18615
垢	-18616
峒	-18617
拣	-18618
悫	-18619
镠	-18620
漓	-18621
绊	-18622
腱	-18623
이	-18624
疵	-18625
蜕	-18626
铯	-18627
镭	-18628
邈	-18629
ツ	-18630
琊	-18631
铋	-18632
呵	-18633
ノ	-18634
堃	-18635
驭	-18636
垭	-18637
爹	-18638
疃	-18639
萘	-18640
蜈	-18641
俚	-18642
茧	-18643
觊	-18644
骷	-18645
憬	-18646
筷	-18647
鵙	-18648
ず	-18649
嬷	-18650
瓢	-18651
縻	-18652
ぐ	-18653
栩	-18654
谌	-18655
俪	-18656
螳	-18657
𫖮	-18658
饺	-18659
唔	-18660
攘	-18661
铰	-18662
ē	-18663
榉	-18664
脍	-18665
谗	-18666
ζ	-18667
»	-18668
≤	-18669
糠	-18670
蚣	-18671
诘	-18672
俑	-18673
蹲	-18674
勺	-18675
抉	-18676
驷	-18677
匍	-18678
郯	-18679
鹈	-18680
锢	-18681
幺	-18682
戦	-18683
赘	-18684
婪	-18685
闫	-18686
勅	-18687
氙	-18688
窘	-18689
谳	-18690
専	-18691
鲻	-18692
昴	-18693
郓	-18694
暧	-18695
辇	-18696
郦	-18697
钜	-18698
漪	-18699
颙	-18700
ぶ	-18701
痰	-18702
ی	-18703
垛	-18704
霑	-18705
Д	-18706
尕	-18707
ع	-18708
そ	-18709
拮	-18710
­	-18711
厮	-18712
廪	-18713
岌	-18714
俟	-18715
澹	-18716
ㄧ	-18717
戡	-18718
ा	-18719
嗽	-18720
牦	-18721
晁	-18722
В	-18723
★	-18724
紊	-18725
郗	-18726
―	-18727
辫	-18728
佰	-18729
痉	-18730
铍	-18731
様	-18732
荞	-18733
辻	-18734
骡	-18735
奂	-18736
锆	-18737
込	-18738
ร	-18739
烙	-18740
慑	-18741
橐	-18742
珙	-18743
雒	-18744
楯	-18745
砺	-18746
箫	-18747
毎	-18748
憧	-18749
耘	-18750
胭	-18751
ت	-18752
沭	-18753
嵇	-18754
珣	-18755
笺	-18756
钍	-18757
笹	-18758
邠	-18759
厩	-18760
涝	-18761
痺	-18762
谘	-18763
阑	-18764
涣	-18765
«	-18766
喧	-18767
夯	-18768
眩	-18769
祢	-18770
←	-18771
撷	-18772
芩	-18773
鹑	-18774
惮	-18775
琇	-18776
瑗	-18777
纭	-18778
诒	-18779
敍	-18780
瞎	-18781
碲	-18782
秆	-18783
锉	-18784
む	-18785
ワ	-18786
媲	-18787
峤	-18788
牍	-18789
遶	-18790
鲟	-18791
笏	-18792
镧	-18793
爨	-18794
纣	-18795
裨	-18796
鸵	-18797
匕	-18798
噜	-18799
镌	-18800
羔	-18801
馒	-18802
्	-18803
懦	-18804
ね	-18805
呋	-18806
缵	-18807
淅	-18808
茗	-18809
蒯	-18810
吩	-18811
璠	-18812
́	-18813
睫	-18814
Σ	-18815
疱	-18816
蝓	-18817
玠	-18818
邃	-18819
绽	-18820
藨	-18821
蛞	-18822
刍	-18823
梶	-18824
猗	-18825
哄	-18826
觎	-18827
豺	-18828
噩	-18829
攒	-18830
璿	-18831
遽	-18832
暐	-18833
褫	-18834
谧	-18835
ł	-18836
蹼	-18837
霁	-18838
涸	-18839
麋	-18840
稗	-18841
湮	-18842
鲗	-18843
鳐	-18844
咄	-18845
酝	-18846
鳔	-18847
Б	-18848
嫖	-18849
煲	-18850
獐	-18851
葶	-18852
鳀	-18853
墉	-18854
妞	-18855
诩	-18856
ш	-18857
乩	-18858
岫	-18859
璨	-18860
陉	-18861
薙	-18862
陟	-18863
塭	-18864
漯	-18865
炊	-18866
髦	-18867
æ	-18868
簪	-18869
肼	-18870
痘	-18871
ŋ	-18872
ه	-18873
蹦	-18874
疚	-18875
砜	-18876
咱	-18877
忤	-18878
斟	-18879
疤	-18880
𫚉	-18881
徕	-18882
砥	-18883
镓	-18884
阈	-18885
嵋	-18886
î	-18887
殓	-18888
瀬	-18889
蝌	-18890
姫	-18891
桡	-18892
澂	-18893
霏	-18894
儋	-18895
喹	-18896
蚪	-18897
逞	-18898
蚺	-18899
幔	-18900
歩	-18901
畈	-18902
痢	-18903
铢	-18904
闿	-18905
Å	-18906
烬	-18907
闳	-18908
偈	-18909
屹	-18910
罄	-18911
隈	-18912
ァ	-18913
涕	-18914
蒨	-18915
嫣	-18916
忿	-18917
瑯	-18918
盱	-18919
阖	-18920
棻	-18921
綦	-18922
轲	-18923
嬅	-18924
诟	-18925
艏	-18926
ケ	-18927
瑁	-18928
薮	-18929
་	-18930
俣	-18931
砀	-18932
碓	-18933
莿	-18934
菟	-18935
赟	-18936
र	-18937
耒	-18938
脲	-18939
菓	-18940
鄯	-18941
∈	-18942
椽	-18943
藕	-18944
醌	-18945
ί	-18946
セ	-18947
獠	-18948
苌	-18949
ˋ	-18950
倻	-18951
帷	-18952
歴	-18953
砦	-18954
ц	-18955
奭	-18956
瑀	-18957
纮	-18958
荖	-18959
蚵	-18960
趴	-18961
峠	-18962
晞	-18963
绾	-18964
蒾	-18965
揖	-18966
槻	-18967
翩	-18968
赭	-18969
Т	-18970
י	-18971
珥	-18972
虬	-18973
锵	-18974
俺	-18975
濡	-18976
耙	-18977
赡	-18978
น	-18979
煊	-18980
瘠	-18981
彊	-18982
憨	-18983
暠	-18984
楫	-18985
楸	-18986
焜	-18987
綝	-18988
缤	-18989
Р	-18990
佯	-18991
榷	-18992
獾	-18993
鄚	-18994
鹗	-18995
踊	-18996
阯	-18997
嶷	-18998
拚	-18999
谙	-19000
镒	-19001
柃	-19002
栱	-19003
蛰	-19004
褪	-19005
Г	-19006
孰	-19007
蚶	-19008
刈	-19009
柝	-19010
蔼	-19011
鲔	-19012
ş	-19013
ボ	-19014
桉	-19015
诙	-19016
谶	-19017
豊	-19018
昉	-19019
埭	-19020
扛	-19021
汨	-19022
蜷	-19023
Ω	-19024
箬	-19025
芪	-19026
鲇	-19027
å	-19028
ă	-19029
苎	-19030
О	-19031
旸	-19032
蛄	-19033
ぎ	-19034
玘	-19035
睑	-19036
嗪	-19037
鹄	-19038
¥	-19039
宓	-19040
揣	-19041
菝	-19042
贽	-19043
龢	-19044
孖	-19045
愫	-19046
●	-19047
壑	-19048
朐	-19049
猥	-19050
诋	-19051
ネ	-19052
勗	-19053
躄	-19054
汜	-19055
涞	-19056
绷	-19057
鮈	-19058
ð	-19059
坨	-19060
枷	-19061
诂	-19062
铟	-19063
鲮	-19064
Н	-19065
坵	-19066
粽	-19067
脯	-19068
颞	-19069
珏	-19070
蜚	-19071
钤	-19072
𫚒	-19073
俶	-19074
涓	-19075
睁	-19076
碛	-19077
惭	-19078
曷	-19079
袒	-19080
妫	-19081
寔	-19082
癣	-19083
黒	-19084
塬	-19085
篙	-19086
囓	-19087
旃	-19088
蹇	-19089
愔	-19090
椴	-19091
睇	-19092
锜	-19093
杷	-19094
х	-19095
汹	-19096
箍	-19097
逛	-19098
噻	-19099
灞	-19100
⋯	-19101
疽	-19102
碚	-19103
镂	-19104
鼱	-19105
䜣	-19106
颛	-19107
ゲ	-19108
蝾	-19109
ו	-19110
ة	-19111
桀	-19112
狒	-19113
眙	-19114
砵	-19115
粿	-19116
蟆	-19117
郜	-19118
𪸩	-19119
ˊ	-19120
崂	-19121
窍	-19122
ح	-19123
†	-19124
旼	-19125
盯	-19126
谑	-19127
钇	-19128
槎	-19129
渺	-19130
鞮	-19131
𪨶	-19132
哔	-19133
瞪	-19134
蓑	-19135
铈	-19136
鹞	-19137
埴	-19138
藁	-19139
锹	-19140
侑	-19141
葜	-19142
蛸	-19143
阚	-19144
沆	-19145
蟑	-19146
铊	-19147
ά	-19148
侥	-19149
恣	-19150
枇	-19151
楂	-19152
滂	-19153
腮	-19154
铐	-19155
吲	-19156
啬	-19157
蚯	-19158
铷	-19159
锶	-19160
靺	-19161
洺	-19162
痹	-19163
翱	-19164
饬	-19165
璀	-19166
芗	-19167
苄	-19168
鞨	-19169
ś	-19170
氪	-19171
羿	-19172
芍	-19173
蜑	-19174
鄜	-19175
®	-19176
墀	-19177
嵙	-19178
炅	-19179
燎	-19180
∞	-19181
ポ	-19182
巻	-19183
恸	-19184
拗	-19185
殃	-19186
瓌	-19187
関	-19188
ゴ	-19189
恿	-19190
怂	-19191
芾	-19192
蓣	-19193
锗	-19194
陲	-19195
恙	-19196
痞	-19197
垠	-19198
爰	-19199
萜	-19200
蓁	-19201
ˈ	-19202
і	-19203
毬	-19204
琚	-19205
豉	-19206
跗	-19207
鎗	-19208
摒	-19209
沢	-19210
ό	-19211
哚	-19212
铆	-19213
骐	-19214
喱	-19215
坷	-19216
憍	-19217
潦	-19218
髯	-19219
胧	-19220
舂	-19221
≥	-19222
纫	-19223
帑	-19224
挹	-19225
猖	-19226
瘀	-19227
韫	-19228
佶	-19229
祟	-19230
蹠	-19231
隷	-19232
霾	-19233
麂	-19234
岀	-19235
遹	-19236
惺	-19237
発	-19238
ザ	-19239
亟	-19240
楝	-19241
磘	-19242
跖	-19243
郅	-19244
ɛ	-19245
倬	-19246
啜	-19247
惫	-19248
窿	-19249
佞	-19250
橹	-19251
菰	-19252
辎	-19253
迤	-19254
鬬	-19255
ò	-19256
χ	-19257
僮	-19258
禛	-19259
艉	-19260
菈	-19261
ざ	-19262
ソ	-19263
狳	-19264
竑	-19265
И	-19266
擘	-19267
砧	-19268
繙	-19269
ヤ	-19270
冏	-19271
圜	-19272
觞	-19273
讣	-19274
郃	-19275
沣	-19276
犰	-19277
鲎	-19278
鸲	-19279
ق	-19280
げ	-19281
淼	-19282
猾	-19283
夙	-19284
晷	-19285
筊	-19286
钿	-19287
亶	-19288
绀	-19289
姒	-19290
婶	-19291
鲬	-19292
辘	-19293
鹕	-19294
剽	-19295
濯	-19296
甾	-19297
踵	-19298
僳	-19299
嘟	-19300
囤	-19301
玥	-19302
棂	-19303
焗	-19304
㭴	-19305
晩	-19306
讧	-19307
嘘	-19308
獴	-19309
碣	-19310
椋	-19311
笞	-19312
嘶	-19313
樋	-19314
浬	-19315
箐	-19316
荩	-19317
蛳	-19318
辂	-19319
镝	-19320
鹀	-19321
ベ	-19322
揪	-19323
晾	-19324
毌	-19325
Á	-19326
傈	-19327
ý	-19328
恍	-19329
び	-19330
唁	-19331
栒	-19332
泠	-19333
ξ	-19334
ペ	-19335
搓	-19336
淝	-19337
跷	-19338
镗	-19339
𪟝	-19340
◎	-19341
増	-19342
徭	-19343
珐	-19344
娲	-19345
玳	-19346
藿	-19347
蘸	-19348
ï	-19349
朦	-19350
汊	-19351
籁	-19352
翦	-19353
鸪	-19354
へ	-19355
ピ	-19356
铼	-19357
雹	-19358
鱚	-19359
리	-19360
ホ	-19361
垓	-19362
氩	-19363
邰	-19364
佺	-19365
傕	-19366
怿	-19367
肮	-19368
ج	-19369
仡	-19370
氘	-19371
芈	-19372
菖	-19373
蔵	-19374
钚	-19375
刎	-19376
咆	-19377
霭	-19378
呛	-19379
榎	-19380
腑	-19381
蹊	-19382
隰	-19383
ž	-19384
ギ	-19385
䲗	-19386
杼	-19387
涎	-19388
帼	-19389
玷	-19390
胛	-19391
貘	-19392
钕	-19393
鲣	-19394
ف	-19395
ย	-19396
เ	-19397
吝	-19398
穰	-19399
缜	-19400
飨	-19401
鲢	-19402
鸬	-19403
湃	-19404
溲	-19405
蚩	-19406
鼯	-19407
刨	-19408
璩	-19409
蟀	-19410
铌	-19411
ั	-19412
ㄨ	-19413
勲	-19414
哌	-19415
圪	-19416
祛	-19417
莴	-19418
ش	-19419
䶮	-19420
坯	-19421
棨	-19422
稹	-19423
ك	-19424
伉	-19425
哼	-19426
柞	-19427
苈	-19428
酆	-19429
飒	-19430
া	-19431
牯	-19432
訇	-19433
鯓	-19434
鹚	-19435
Л	-19436
矜	-19437
峥	-19438
惋	-19439
昺	-19440
蟋	-19441
馗	-19442
`	-19443
û	-19444
อ	-19445
嵘	-19446
戾	-19447
扉	-19448
苾	-19449
ψ	-19450
ж	-19451
吒	-19452
樾	-19453
邽	-19454
钹	-19455
ě	-19456
䃅	-19457
滢	-19458
ヒ	-19459
侪	-19460
恵	-19461
ง	-19462
椁	-19463
珅	-19464
讪	-19465
鹧	-19466
Đ	-19467
ɔ	-19468
ม	-19469
圹	-19470
枞	-19471
筐	-19472
蜢	-19473
ก	-19474
啾	-19475
瑷	-19476
秣	-19477
锴	-19478
阂	-19479
䲢	-19480
拭	-19481
罟	-19482
颏	-19483
勰	-19484
嗡	-19485
柽	-19486
氚	-19487
铛	-19488
Č	-19489
У	-19490
蛏	-19491
姝	-19492
簕	-19493
苜	-19494
唢	-19495
暄	-19496
梆	-19497
疙	-19498
阏	-19499
弢	-19500
瘩	-19501
蜊	-19502
袂	-19503
劵	-19504
泚	-19505
溱	-19506
稃	-19507
郷	-19508
崽	-19509
彷	-19510
桤	-19511
焓	-19512
簋	-19513
婧	-19514
苕	-19515
蔴	-19516
隣	-19517
霈	-19518
ì	-19519
ư	-19520
ि	-19521
坌	-19522
洹	-19523
缄	-19524
膊	-19525
ส	-19526
嵴	-19527
淌	-19528
澶	-19529
َ	-19530
咫	-19531
姉	-19532
巯	-19533
晗	-19534
枸	-19535
槲	-19536
溟	-19537
臆	-19538
苫	-19539
蠹	-19540
ה	-19541
峄	-19542
蒽	-19543
驒	-19544
べ	-19545
囍	-19546
牂	-19547
膑	-19548
袱	-19549
鹌	-19550
ิ	-19551
獗	-19552
荳	-19553
葳	-19554
褓	-19555
鲃	-19556
鸻	-19557
黻	-19558
대	-19559
न	-19560
弭	-19561
蓿	-19562
蹂	-19563
榊	-19564
瘿	-19565
蛀	-19566
ù	-19567
喔	-19568
葭	-19569
鎏	-19570
徇	-19571
抟	-19572
缬	-19573
駄	-19574
Ö	-19575
凫	-19576
咝	-19577
嘿	-19578
蚋	-19579
崃	-19580
簸	-19581
铑	-19582
闼	-19583
Š	-19584
効	-19585
Φ	-19586
א	-19587
ר	-19588
塩	-19589
罡	-19590
袤	-19591
邙	-19592
阕	-19593
ز	-19594
冴	-19595
淬	-19596
坻	-19597
砻	-19598
藐	-19599
泫	-19600
疝	-19601
瞧	-19602
稙	-19603
郫	-19604
鮗	-19605
Γ	-19606
ぼ	-19607
壅	-19608
廨	-19609
沩	-19610
泞	-19611
窈	-19612
荽	-19613
酢	-19614
ˇ	-19615
玹	-19616
瘴	-19617
躏	-19618
捩	-19619
炘	-19620
燿	-19621
镯	-19622
嵬	-19623
洸	-19624
珽	-19625
硐	-19626
缭	-19627
菘	-19628
지	-19629
ḥ	-19630
仝	-19631
寐	-19632
拈	-19633
铱	-19634
伫	-19635
僊	-19636
濉	-19637
袄	-19638
跛	-19639
鹂	-19640
哒	-19641
梿	-19642
裟	-19643
钐	-19644
溆	-19645
犒	-19646
畹	-19647
膈	-19648
闱	-19649
兢	-19650
嘅	-19651
噌	-19652
荏	-19653
蹴	-19654
鉄	-19655
钽	-19656
倣	-19657
箓	-19658
萦	-19659
骘	-19660
다	-19661
嶂	-19662
皝	-19663
穂	-19664
铧	-19665
김	-19666
Π	-19667
э	-19668
↔	-19669
囧	-19670
拴	-19671
舔	-19672
芊	-19673
郇	-19674
㹴	-19675
榫	-19676
诤	-19677
逖	-19678
阊	-19679
髋	-19680
傉	-19681
嘢	-19682
婵	-19683
鯻	-19684
埙	-19685
孳	-19686
蹶	-19687
锕	-19688
呗	-19689
唛	-19690
榧	-19691
湜	-19692
袈	-19693
赝	-19694
ㄚ	-19695
甑	-19696
蘅	-19697
趺	-19698
楽	-19699
眈	-19700
磬	-19701
舎	-19702
褂	-19703
髑	-19704
사	-19705
榖	-19706
瓠	-19707
疸	-19708
赜	-19709
€	-19710
刽	-19711
礽	-19712
铪	-19713
鞣	-19714
魣	-19715
ى	-19716
嚎	-19717
沓	-19718
璁	-19719
痲	-19720
雎	-19721
ː	-19722
Λ	-19723
惣	-19724
瓩	-19725
绡	-19726
卬	-19727
啃	-19728
焱	-19729
狈	-19730
肟	-19731
鄄	-19732
伝	-19733
俦	-19734
崮	-19735
犷	-19736
荤	-19737
钌	-19738
镫	-19739
鸱	-19740
麿	-19741
Ü	-19742
Α	-19743
ว	-19744
囿	-19745
怛	-19746
捶	-19747
芫	-19748
한	-19749
ń	-19750
倜	-19751
嘏	-19752
揄	-19753
枥	-19754
辊	-19755
铤	-19756
魇	-19757
仞	-19758
冇	-19759
虻	-19760
鱥	-19761
ɪ	-19762
剡	-19763
垌	-19764
埒	-19765
怙	-19766
扦	-19767
胝	-19768
蛆	-19769
의	-19770
円	-19771
疋	-19772
皙	-19773
莨	-19774
谄	-19775
飚	-19776
鹎	-19777
麸	-19778
侂	-19779
姣	-19780
糅	-19781
莼	-19782
趸	-19783
έ	-19784
敝	-19785
碶	-19786
翚	-19787
荛	-19788
颧	-19789
驩	-19790
म	-19791
痣	-19792
翳	-19793
舛	-19794
蕤	-19795
蜃	-19796
謇	-19797
정	-19798
ユ	-19799
塱	-19800
撬	-19801
枹	-19802
涮	-19803
犸	-19804
琯	-19805
缗	-19806
誊	-19807
轫	-19808
闩	-19809
क	-19810
ท	-19811
傚	-19812
巂	-19813
ή	-19814
悸	-19815
愕	-19816
拏	-19817
昪	-19818
đ	-19819
ל	-19820
眨	-19821
萁	-19822
螭	-19823
鸨	-19824
아	-19825
劢	-19826
嶙	-19827
渑	-19828
滏	-19829
鋆	-19830
하	-19831
ヴ	-19832
俎	-19833
剁	-19834
枱	-19835
濶	-19836
翀	-19837
戋	-19838
鄠	-19839
ש	-19840
்	-19841
♪	-19842
佾	-19843
呦	-19844
哏	-19845
団	-19846
珺	-19847
砭	-19848
缰	-19849
飏	-19850
鲵	-19851
ğ	-19852
槺	-19853
湣	-19854
ա	-19855
坭	-19856
尪	-19857
绂	-19858
芡	-19859
茁	-19860
蛉	-19861
¬	-19862
З	-19863
Ф	-19864
粑	-19865
茔	-19866
鉏	-19867
𫖯	-19868
≠	-19869
哦	-19870
唧	-19871
噗	-19872
抡	-19873
熠	-19874
総	-19875
胳	-19876
郏	-19877
酣	-19878
가	-19879
仟	-19880
埂	-19881
壆	-19882
揶	-19883
樗	-19884
泯	-19885
喋	-19886
拽	-19887
荸	-19888
谀	-19889
伕	-19890
圉	-19891
実	-19892
浃	-19893
翥	-19894
성	-19895
ř	-19896
त	-19897
△	-19898
呱	-19899
柊	-19900
瑱	-19901
縁	-19902
羸	-19903
芃	-19904
雑	-19905
黟	-19906
黼	-19907
づ	-19908
卍	-19909
胯	-19910
詧	-19911
蹬	-19912
ʔ	-19913
搪	-19914
焖	-19915
豳	-19916
钪	-19917
髹	-19918
鹩	-19919
凪	-19920
戬	-19921
烩	-19922
癞	-19923
腩	-19924
郾	-19925
骋	-19926
ी	-19927
咩	-19928
畬	-19929
秭	-19930
笆	-19931
蒺	-19932
褥	-19933
饯	-19934
黝	-19935
ṣ	-19936
伋	-19937
堉	-19938
罘	-19939
裱	-19940
逄	-19941
酞	-19942
ط	-19943
圮	-19944
峁	-19945
Κ	-19946
מ	-19947
呷	-19948
搐	-19949
椤	-19950
磕	-19951
祔	-19952
粕	-19953
铄	-19954
鬓	-19955
鬲	-19956
鹮	-19957
埸	-19958
玙	-19959
窕	-19960
绦	-19961
骢	-19962
प	-19963
乜	-19964
尙	-19965
楙	-19966
浍	-19967
睺	-19968
ล	-19969
俵	-19970
湫	-19971
诜	-19972
鬻	-19973
ב	-19974
ა	-19975
売	-19976
捒	-19977
桠	-19978
沄	-19979
逋	-19980
颎	-19981
鹱	-19982
ʻ	-19983
خ	-19984
ี	-19985
垸	-19986
峋	-19987
溏	-19988
芨	-19989
辺	-19990
嗟	-19991
惘	-19992
炤	-19993
祆	-19994
胍	-19995
기	-19996
